{
  "version": "1.0",
  "truncation": null,
  "padding": null,
  "added_tokens": [
    {
      "id": 0,
      "content": "[PAD]",
      "single_word": false,
      "lstrip": false,
      "rstrip": false,
      "normalized": false,
      "special": true
    },
    {
      "id": 1,
      "content": "[UNK]",
      "single_word": false,
      "lstrip": false,
      "rstrip": false,
      "normalized": false,
      "special": true
    },
    {
      "id": 2,
      "content": "[CLS]",
      "single_word": false,
      "lstrip": false,
      "rstrip": false,
      "normalized": false,
      "special": true
    },
    {
      "id": 3,
      "content": "[SEP]",
      "single_word": false,
      "lstrip": false,
      "rstrip": false,
      "normalized": false,
      "special": true
    },
    {
      "id": 4,
      "content": "[MASK]",
      "single_word": false,
      "lstrip": false,
      "rstrip": false,
      "normalized": false,
      "special": true
    },
    {
      "id": 5,
      "content": "[IF_MASK]",
      "single_word": false,
      "lstrip": false,
      "rstrip": false,
      "normalized": false,
      "special": true
    }
  ],
  "normalizer": null,
  "pre_tokenizer": {
    "type": "ByteLevel",
    "add_prefix_space": true,
    "trim_offsets": true,
    "use_regex": true
  },
  "post_processor": {
    "type": "TemplateProcessing",
    "single": [
      {
        "SpecialToken": {
          "id": "[CLS]",
          "type_id": 0
        }
      },
      {
        "Sequence": {
          "id": "A",
          "type_id": 0
        }
      },
      {
        "SpecialToken": {
          "id": "[SEP]",
          "type_id": 0
        }
      }
    ],
    "pair": [
      {
        "SpecialToken": {
          "id": "[CLS]",
          "type_id": 0
        }
      },
      {
        "Sequence": {
          "id": "A",
          "type_id": 0
        }
      },
      {
        "SpecialToken": {
          "id": "[SEP]",
          "type_id": 0
        }
      },
      {
        "Sequence": {
          "id": "B",
          "type_id": 1
        }
      },
      {
        "SpecialToken": {
          "id": "[SEP]",
          "type_id": 1
        }
      }
    ],
    "special_tokens": {
      "[CLS]": {
        "id": "[CLS]",
        "ids": [
          2
        ],
        "tokens": [
          "[CLS]"
        ]
      },
      "[SEP]": {
        "id": "[SEP]",
        "ids": [
          3
        ],
        "tokens": [
          "[SEP]"
        ]
      }
    }
  },
  "decoder": null,
  "model": {
    "type": "BPE",
    "dropout": null,
    "unk_token": "[UNK]",
    "continuing_subword_prefix": null,
    "end_of_word_suffix": null,
    "fuse_unk": false,
    "byte_fallback": false,
    "ignore_merges": false,
    "vocab": {
      "[PAD]": 0,
      "[UNK]": 1,
      "[CLS]": 2,
      "[SEP]": 3,
      "[MASK]": 4,
      "[IF_MASK]": 5,
      "!": 6,
      "\"": 7,
      "#": 8,
      "$": 9,
      "%": 10,
      "&": 11,
      "'": 12,
      "(": 13,
      ")": 14,
      "*": 15,
      "+": 16,
      ",": 17,
      "-": 18,
      ".": 19,
      "/": 20,
      "0": 21,
      "1": 22,
      "2": 23,
      "3": 24,
      "4": 25,
      "5": 26,
      "6": 27,
      "7": 28,
      "8": 29,
      "9": 30,
      ":": 31,
      ";": 32,
      "<": 33,
      "=": 34,
      ">": 35,
      "?": 36,
      "@": 37,
      "A": 38,
      "B": 39,
      "C": 40,
      "D": 41,
      "E": 42,
      "F": 43,
      "G": 44,
      "H": 45,
      "I": 46,
      "J": 47,
      "K": 48,
      "L": 49,
      "M": 50,
      "N": 51,
      "O": 52,
      "P": 53,
      "Q": 54,
      "R": 55,
      "S": 56,
      "T": 57,
      "U": 58,
      "V": 59,
      "W": 60,
      "X": 61,
      "Y": 62,
      "Z": 63,
      "[": 64,
      "\\": 65,
      "]": 66,
      "^": 67,
      "_": 68,
      "`": 69,
      "a": 70,
      "b": 71,
      "c": 72,
      "d": 73,
      "e": 74,
      "f": 75,
      "g": 76,
      "h": 77,
      "i": 78,
      "j": 79,
      "k": 80,
      "l": 81,
      "m": 82,
      "n": 83,
      "o": 84,
      "p": 85,
      "q": 86,
      "r": 87,
      "s": 88,
      "t": 89,
      "u": 90,
      "v": 91,
      "w": 92,
      "x": 93,
      "y": 94,
      "z": 95,
      "{": 96,
      "|": 97,
      "}": 98,
      "~": 99,
      "¡": 100,
      "¢": 101,
      "£": 102,
      "¤": 103,
      "¥": 104,
      "¦": 105,
      "§": 106,
      "¨": 107,
      "©": 108,
      "ª": 109,
      "«": 110,
      "¬": 111,
      "®": 112,
      "¯": 113,
      "°": 114,
      "±": 115,
      "²": 116,
      "³": 117,
      "´": 118,
      "µ": 119,
      "¶": 120,
      "·": 121,
      "¸": 122,
      "¹": 123,
      "º": 124,
      "»": 125,
      "¼": 126,
      "½": 127,
      "¾": 128,
      "¿": 129,
      "À": 130,
      "Á": 131,
      "Â": 132,
      "Ã": 133,
      "Ä": 134,
      "Å": 135,
      "Æ": 136,
      "Ç": 137,
      "È": 138,
      "É": 139,
      "Ê": 140,
      "Ë": 141,
      "Ì": 142,
      "Í": 143,
      "Î": 144,
      "Ï": 145,
      "Ð": 146,
      "Ñ": 147,
      "Ò": 148,
      "Ó": 149,
      "Ô": 150,
      "Õ": 151,
      "Ö": 152,
      "×": 153,
      "Ø": 154,
      "Ù": 155,
      "Ú": 156,
      "Û": 157,
      "Ü": 158,
      "Ý": 159,
      "Þ": 160,
      "ß": 161,
      "à": 162,
      "á": 163,
      "â": 164,
      "ã": 165,
      "ä": 166,
      "å": 167,
      "æ": 168,
      "ç": 169,
      "è": 170,
      "é": 171,
      "ê": 172,
      "ë": 173,
      "ì": 174,
      "í": 175,
      "î": 176,
      "ï": 177,
      "ð": 178,
      "ñ": 179,
      "ò": 180,
      "ó": 181,
      "ô": 182,
      "õ": 183,
      "ö": 184,
      "÷": 185,
      "ø": 186,
      "ù": 187,
      "ú": 188,
      "û": 189,
      "ü": 190,
      "ý": 191,
      "þ": 192,
      "ÿ": 193,
      "Ā": 194,
      "ā": 195,
      "Ă": 196,
      "ă": 197,
      "Ą": 198,
      "ą": 199,
      "Ć": 200,
      "ć": 201,
      "Ĉ": 202,
      "ĉ": 203,
      "Ċ": 204,
      "ċ": 205,
      "Č": 206,
      "č": 207,
      "Ď": 208,
      "ď": 209,
      "Đ": 210,
      "đ": 211,
      "Ē": 212,
      "ē": 213,
      "Ĕ": 214,
      "ĕ": 215,
      "Ė": 216,
      "ė": 217,
      "Ę": 218,
      "ę": 219,
      "Ě": 220,
      "ě": 221,
      "Ĝ": 222,
      "ĝ": 223,
      "Ğ": 224,
      "ğ": 225,
      "Ġ": 226,
      "ġ": 227,
      "Ģ": 228,
      "ģ": 229,
      "Ĥ": 230,
      "ĥ": 231,
      "Ħ": 232,
      "ħ": 233,
      "Ĩ": 234,
      "ĩ": 235,
      "Ī": 236,
      "ī": 237,
      "Ĭ": 238,
      "ĭ": 239,
      "Į": 240,
      "į": 241,
      "İ": 242,
      "ı": 243,
      "Ĳ": 244,
      "ĳ": 245,
      "Ĵ": 246,
      "ĵ": 247,
      "Ķ": 248,
      "ķ": 249,
      "ĸ": 250,
      "Ĺ": 251,
      "ĺ": 252,
      "Ļ": 253,
      "ļ": 254,
      "Ľ": 255,
      "ľ": 256,
      "Ŀ": 257,
      "ŀ": 258,
      "Ł": 259,
      "ł": 260,
      "Ń": 261,
      "ĠĠ": 262,
      "ĠĠĠĠ": 263,
      "ĠĠĠĠĠĠĠĠ": 264,
      "ĠĠĠ": 265,
      "ĠĠĠĠĠĠĠĠĠĠĠĠĠĠĠĠ": 266,
      "se": 267,
      "ĠĠĠĠĠĠĠ": 268,
      "re": 269,
      "sel": 270,
      "self": 271,
      "ĊĠĠĠĠĠĠĠ": 272,
      "in": 273,
      "Ġ=": 274,
      "on": 275,
      "te": 276,
      "de": 277,
      "ĊĠĠĠĠĠĠĠĠ": 278,
      "or": 279,
      "st": 280,
      "ĠĠĠĠĠĠĠĠĠĠĠĠĠĠĠĠĠĠĠĠĠĠĠĠĠĠĠĠĠĠĠĠ": 281,
      "ĊĠĠĠ": 282,
      "Ġself": 283,
      "le": 284,
      "me": 285,
      "at": 286,
      "Ġi": 287,
      "ĊĠĠĠĠĠĠĠĠĠĠĠ": 288,
      "al": 289,
      "er": 290,
      "):": 291,
      "ar": 292,
      "an": 293,
      "ge": 294,
      "ti": 295,
      "Ġre": 296,
      "ro": 297,
      "ur": 298,
      "Ġ'": 299,
      "as": 300,
      "def": 301,
      "en": 302,
      "Ġc": 303,
      "Ġf": 304,
      "ue": 305,
      "ĊĠĠĠĠĠĠĠĠĠĠĠĠĠĠĠĠĠĠĠĠĠĠĠĠĠĠĠĠĠĠĠĠ": 306,
      "ce": 307,
      "ĊĠĠĠĠĠĠĠĠĠĠĠĠĠĠĠĠ": 308,
      "ame": 309,
      "mp": 310,
      "el": 311,
      "Ġdef": 312,
      "Ġp": 313,
      "()": 314,
      "Ġif": 315,
      "Ġ\"": 316,
      "ct": 317,
      "th": 318,
      "Ġn": 319,
      "',": 320,
      "ate": 321,
      "nt": 322,
      "Ġret": 323,
      "urn": 324,
      "co": 325,
      "Ġreturn": 326,
      "__": 327,
      "lo": 328,
      "ĊĊĠĠĠ": 329,
      "ser": 330,
      "ĊĠĠĠĠĠĠĠĠĠĠĠĠĠĠĠ": 331,
      "Ġin": 332,
      "fi": 333,
      "ing": 334,
      "tr": 335,
      "id": 336,
      "pe": 337,
      "get": 338,
      "ort": 339,
      "li": 340,
      "ch": 341,
      "name": 342,
      "Ġs": 343,
      "ad": 344,
      "tion": 345,
      "one": 346,
      "('": 347,
      "Ġd": 348,
      "ex": 349,
      "ap": 350,
      "ty": 351,
      "to": 352,
      "si": 353,
      "None": 354,
      "Ġm": 355,
      "ter": 356,
      "ck": 357,
      "mport": 358,
      "Ġ(": 359,
      "ot": 360,
      "ut": 361,
      "un": 362,
      "val": 363,
      "Ġo": 364,
      "')": 365,
      "di": 366,
      "ode": 367,
      "ĊĠĠĠĠĠĠĠĠĠĠĠĠĠĠĠĠĠĠĠĠĠĠĠĠĠĠĠĠĠĠĠĠĠĠĠĠĠĠĠĠĠĠĠĠĠĠĠĠĠĠĠĠĠĠĠĠĠĠĠĠĠĠĠĠ": 368,
      "ass": 369,
      "ri": 370,
      "ĠĠĠĠĠ": 371,
      "set": 372,
      "con": 373,
      "\",": 374,
      "._": 375,
      "ul": 376,
      "Ġfor": 377,
      "ĊĠĠĠĠĠĠĠĠĠĠĠĠĠĠĠĠĠĠĠ": 378,
      "rom": 379,
      "age": 380,
      "Ġb": 381,
      "ab": 382,
      "up": 383,
      "),": 384,
      "':": 385,
      "it": 386,
      "and": 387,
      "ect": 388,
      "ĊĊ": 389,
      "cl": 390,
      "sp": 391,
      "Ġ0": 392,
      "ke": 393,
      "))": 394,
      "qu": 395,
      "str": 396,
      "ata": 397,
      "ss": 398,
      "Ġ%": 399,
      "Ġ+": 400,
      "am": 401,
      "Ġ1": 402,
      "Ġimport": 403,
      "ĠNone": 404,
      "eld": 405,
      "Ġel": 406,
      "Ġ[": 407,
      "il": 408,
      "xt": 409,
      "value": 410,
      "(\"": 411,
      "ati": 412,
      "ol": 413,
      "type": 414,
      "der": 415,
      "ver": 416,
      "bj": 417,
      "from": 418,
      "gs": 419,
      "Ġr": 420,
      "ed": 421,
      "ĊĊĠĠĠĠĠĠĠ": 422,
      "app": 423,
      "Ġw": 424,
      "text": 425,
      "et": 426,
      "sert": 427,
      "Ġ_": 428,
      "que": 429,
      "vi": 430,
      "Ġis": 431,
      "test": 432,
      "00": 433,
      "Ġ==": 434,
      "Ġnot": 435,
      "Ġh": 436,
      "']": 437,
      "ror": 438,
      "assert": 439,
      "ath": 440,
      "es": 441,
      "pro": 442,
      "ation": 443,
      "key": 444,
      "od": 445,
      "ment": 446,
      "class": 447,
      "is": 448,
      "ĠT": 449,
      "ĊĠĠĠĠĠĠĠĠĠĠĠĠĠĠĠĠĠĠĠĠĠĠĠĠ": 450,
      "\")": 451,
      "ction": 452,
      "um": 453,
      "end": 454,
      "op": 455,
      "ta": 456,
      "ĊĠĠĠĠĠĠĠĠĠĠĠĠĠĠĠĠĠĠĠĠĠĠĠĠĠĠĠĠĠĠĠĠĠĠĠĠĠĠĠĠĠĠĠĠĠĠĠĠ": 457,
      "la": 458,
      "Ġu": 459,
      "orm": 460,
      "ult": 461,
      "ma": 462,
      "time": 463,
      "Ġa": 464,
      "Ġ{": 465,
      "quest": 466,
      "Ġcon": 467,
      "args": 468,
      "['": 469,
      "ĠĠĠĠĠĠ": 470,
      "len": 471,
      "lin": 472,
      "ent": 473,
      "rue": 474,
      "ve": 475,
      "ield": 476,
      "bject": 477,
      "ase": 478,
      "Ġelse": 479,
      "ew": 480,
      "able": 481,
      "Ġ*": 482,
      "sion": 483,
      "art": 484,
      "ile": 485,
      "Ġex": 486,
      "file": 487,
      "ĊĠ": 488,
      "add": 489,
      "\":": 490,
      "Ġst": 491,
      "us": 492,
      "odel": 493,
      "all": 494,
      "Re": 495,
      "Ġt": 496,
      "ance": 497,
      "ĊĠĠĠĠĠ": 498,
      "Er": 499,
      "ht": 500,
      "__(": 501,
      "po": 502,
      "ĠF": 503,
      "int": 504,
      "Error": 505,
      "ack": 506,
      "Ġ__": 507,
      "if": 508,
      "ted": 509,
      "ub": 510,
      "data": 511,
      "Ġ-": 512,
      "tem": 513,
      "ĊĠĠĠĠĠĠĠĠĠĠĠĠĠĠĠĠĠĠĠĠĠĠĠĠĠĠĠĠĠĠĠĠĠĠĠĠĠĠĠĠĠĠĠĠĠĠĠĠĠĠĠĠĠĠĠĠĠĠĠĠĠĠĠĠĠĠĠĠĠĠĠĠ": 514,
      "path": 515,
      "bu": 516,
      "ĠS": 517,
      "ze": 518,
      "ig": 519,
      "ow": 520,
      "ure": 521,
      "log": 522,
      "code": 523,
      "he": 524,
      "alse": 525,
      "ff": 526,
      "ption": 527,
      "per": 528,
      "url": 529,
      "Ġe": 530,
      "=\"": 531,
      "che": 532,
      "om": 533,
      "ai": 534,
      "ĠC": 535,
      "stance": 536,
      "Ġto": 537,
      "date": 538,
      "form": 539,
      "list": 540,
      "Ġx": 541,
      "attr": 542,
      "Ġde": 543,
      "Ġ2": 544,
      "qual": 545,
      "object": 546,
      "Ġand": 547,
      "pt": 548,
      "par": 549,
      "ĠP": 550,
      "In": 551,
      "])": 552,
      "put": 553,
      "spon": 554,
      "Ġtest": 555,
      "Ġget": 556,
      "\"\"": 557,
      "],": 558,
      "fo": 559,
      "Ġth": 560,
      "sponse": 561,
      "ĊĠĠĠĠĠĠĠĠĠĠĠĠĠĠĠĠĠĠĠĠĠĠĠĠĠĠĠĠĠĠĠĠĠĠĠĠĠĠĠĠ": 562,
      "Ġname": 563,
      "ord": 564,
      "sh": 565,
      "ĊĠĠĠĠĠĠĠĠĠĠĠĠĠĠĠĠĠĠĠĠĠĠĠ": 566,
      "ang": 567,
      "Ġvalue": 568,
      "Equal": 569,
      "col": 570,
      "import": 571,
      "Ġg": 572,
      ".__": 573,
      "init": 574,
      "try": 575,
      "rent": 576,
      "fig": 577,
      "ay": 578,
      "user": 579,
      "append": 580,
      "ĠA": 581,
      "aise": 582,
      "out": 583,
      "line": 584,
      "our": 585,
      "ype": 586,
      "unt": 587,
      "sc": 588,
      "ĊĠĠĠĠĠĠĠĠĠĠĠĠĠĠĠĠĠĠĠĠĠĠĠĠĠĠĠĠĠĠĠĠĠĠĠĠĠĠĠĠĠĠĠĠĠĠĠĠĠĠĠĠĠĠĠĠ": 589,
      "ST": 590,
      "ag": 591,
      "sult": 592,
      "ml": 593,
      "assertEqual": 594,
      "ange": 595,
      "ader": 596,
      "uth": 597,
      "Ġor": 598,
      "True": 599,
      "ER": 600,
      "Ġy": 601,
      "ssage": 602,
      "ist": 603,
      "IN": 604,
      "ac": 605,
      "bo": 606,
      "Ġpro": 607,
      "request": 608,
      "atch": 609,
      "ind": 610,
      "mo": 611,
      "ith": 612,
      "ip": 613,
      "im": 614,
      "oc": 615,
      "kw": 616,
      "='": 617,
      "pre": 618,
      "field": 619,
      "ok": 620,
      "ault": 621,
      "dex": 622,
      "cre": 623,
      "ler": 624,
      "ext": 625,
      "Ġset": 626,
      "Ġlen": 627,
      "Ġraise": 628,
      "ca": 629,
      "Ġpar": 630,
      "ource": 631,
      "Ġ)": 632,
      "Ġme": 633,
      "instance": 634,
      "tent": 635,
      "min": 636,
      "jo": 637,
      "late": 638,
      "Ġ<": 639,
      "Field": 640,
      "Ġelif": 641,
      "Ġen": 642,
      "Con": 643,
      "est": 644,
      "ĠTrue": 645,
      "ace": 646,
      "Ġdata": 647,
      "ĠM": 648,
      "ho": 649,
      "rite": 650,
      "Ġstr": 651,
      "ĊĠĠĠĠĠĠĠĠĠĠĠĠĠĠĠĠĠĠĠĊĠĠĠĠĠĠĠ": 652,
      "[\"": 653,
      "():": 654,
      "ore": 655,
      "ĊĠĠĠĠ": 656,
      "com": 657,
      "ic": 658,
      "tp": 659,
      "ĠD": 660,
      "ĊĊĠ": 661,
      "ams": 662,
      "RE": 663,
      "ild": 664,
      "read": 665,
      "Ġ+=": 666,
      "Ġl": 667,
      "ĠFalse": 668,
      "ory": 669,
      "py": 670,
      "has": 671,
      "fe": 672,
      "ON": 673,
      "vent": 674,
      "cept": 675,
      "mple": 676,
      "Type": 677,
      "ken": 678,
      "Pro": 679,
      "cur": 680,
      "red": 681,
      "ls": 682,
      "ne": 683,
      "thod": 684,
      "ery": 685,
      "roup": 686,
      "Ġv": 687,
      "error": 688,
      "())": 689,
      "Ġse": 690,
      "kwargs": 691,
      "AT": 692,
      "ali": 693,
      "cess": 694,
      "Ġthe": 695,
      "ream": 696,
      "model": 697,
      "temp": 698,
      "start": 699,
      "ule": 700,
      "ings": 701,
      "ango": 702,
      "ber": 703,
      "lient": 704,
      "Ġ3": 705,
      "Val": 706,
      "low": 707,
      "atus": 708,
      "jango": 709,
      "Ġ[]": 710,
      "pec": 711,
      "ten": 712,
      "Ġch": 713,
      "write": 714,
      "size": 715,
      "Ex": 716,
      "\"]": 717,
      "ature": 718,
      "Ġtry": 719,
      "lay": 720,
      "Ġos": 721,
      "ĠL": 722,
      "tes": 723,
      "Ġ**": 724,
      ").": 725,
      "view": 726,
      "ĠU": 727,
      "Ġkey": 728,
      "count": 729,
      "dir": 730,
      "'),": 731,
      "ax": 732,
      "by": 733,
      "ator": 734,
      "Ġresult": 735,
      "ren": 736,
      "Ġrequest": 737,
      "Ġlog": 738,
      "ĠN": 739,
      "Ġ:": 740,
      "LE": 741,
      "--": 742,
      "item": 743,
      "lement": 744,
      "act": 745,
      "ans": 746,
      "ys": 747,
      "Ġ}": 748,
      "son": 749,
      "und": 750,
      "loc": 751,
      "Ġ>": 752,
      "og": 753,
      "port": 754,
      "arg": 755,
      "row": 756,
      "gth": 757,
      "join": 758,
      "Ġexcept": 759,
      "ir": 760,
      "Ġfile": 761,
      "sg": 762,
      "os": 763,
      "tring": 764,
      "abel": 765,
      "query": 766,
      "</": 767,
      "Ġ('": 768,
      "update": 769,
      "OR": 770,
      "back": 771,
      "ĠB": 772,
      "tri": 773,
      "auth": 774,
      "St": 775,
      "En": 776,
      "node": 777,
      "ger": 778,
      "version": 779,
      "lic": 780,
      "string": 781,
      "Ġmodel": 782,
      "Ġas": 783,
      "ec": 784,
      "ĠI": 785,
      "ĠO": 786,
      "lock": 787,
      "uct": 788,
      "load": 789,
      "Ġ!": 790,
      "state": 791,
      "Ġco": 792,
      "arent": 793,
      "tag": 794,
      "valid": 795,
      "word": 796,
      "Ġtype": 797,
      "ail": 798,
      "ME": 799,
      "config": 800,
      "False": 801,
      "Ġuser": 802,
      "Ġout": 803,
      "(),": 804,
      "vice": 805,
      "Ġfrom": 806,
      "ra": 807,
      "ĠG": 808,
      "fix": 809,
      "ĊĠĠĠĠĊĠĠĠ": 810,
      "Ġ!=": 811,
      "Ġform": 812,
      "lib": 813,
      "ner": 814,
      "ly": 815,
      "Ġdi": 816,
      "sa": 817,
      "Value": 818,
      "info": 819,
      "ree": 820,
      "Ġpass": 821,
      "Ġassert": 822,
      "Name": 823,
      "ody": 824,
      "ĊĠĠĠĠĠĠĠĠĠĠĠĊĠĠĠ": 825,
      "Test": 826,
      "res": 827,
      "odule": 828,
      "lass": 829,
      "ary": 830,
      "andler": 831,
      "dict": 832,
      "db": 833,
      "response": 834,
      "ception": 835,
      "Ġ@": 836,
      "Ġdjango": 837,
      "32": 838,
      "Ġ4": 839,
      "context": 840,
      "tle": 841,
      "index": 842,
      "create": 843,
      "ĊĠĠĠĠĠĠĠĠĠĠĠĠĠĠĠĠĠĠĠĠĠĠĠĠĠĠĠ": 844,
      "ask": 845,
      "ock": 846,
      "unc": 847,
      "ost": 848,
      "num": 849,
      "ize": 850,
      "AR": 851,
      "reg": 852,
      "method": 853,
      "option": 854,
      "scri": 855,
      "ther": 856,
      "DE": 857,
      "tings": 858,
      "objects": 859,
      "Ġun": 860,
      "Ġfield": 861,
      "json": 862,
      "ref": 863,
      "ject": 864,
      "rect": 865,
      "TE": 866,
      "perty": 867,
      "Ġisinstance": 868,
      "den": 869,
      "AL": 870,
      "comp": 871,
      "Ġtime": 872,
      "Ġnew": 873,
      "qui": 874,
      "ight": 875,
      "fil": 876,
      "uti": 877,
      "Ġnode": 878,
      "ork": 879,
      "group": 880,
      "gr": 881,
      "title": 882,
      "01": 883,
      "main": 884,
      "ug": 885,
      "ts": 886,
      "ĠH": 887,
      "Ġ{}": 888,
      "no": 889,
      "template": 890,
      "ry": 891,
      "].": 892,
      "String": 893,
      "ard": 894,
      "Ch": 895,
      "token": 896,
      "sub": 897,
      "mit": 898,
      "ses": 899,
      "max": 900,
      "Ġ/": 901,
      "Ġk": 902,
      "nection": 903,
      "server": 904,
      "([": 905,
      "ĠĠĠĠĠĠĠĠĠĠĠĠĠĠĠĠĠĠĠĠĠĠĠĠ": 906,
      "status": 907,
      "rep": 908,
      "ute": 909,
      "Ġurl": 910,
      "Ġcol": 911,
      "rint": 912,
      "ine": 913,
      "Ġhas": 914,
      "ume": 915,
      "message": 916,
      "client": 917,
      "Ġtext": 918,
      "trans": 919,
      "idth": 920,
      "Ġresponse": 921,
      "De": 922,
      "Form": 923,
      "default": 924,
      "ĊĊĠĠĠĠĠĠĠĠĠĠĠ": 925,
      "cle": 926,
      "Ġhe": 927,
      "own": 928,
      "SE": 929,
      "format": 930,
      "ui": 931,
      "lit": 932,
      "ĊĠĠĠĠĠĠĠĠĠĠĠĠ": 933,
      "length": 934,
      "..": 935,
      "ument": 936,
      "umn": 937,
      "().": 938,
      "inter": 939,
      "ign": 940,
      "Ġsup": 941,
      "pen": 942,
      "idget": 943,
      "with": 944,
      "Me": 945,
      "Ġof": 946,
      "Ġyield": 947,
      "ress": 948,
      "ull": 949,
      "//": 950,
      "obj": 951,
      "base": 952,
      "source": 953,
      "root": 954,
      "content": 955,
      "\"\"\"": 956,
      "http": 957,
      "mail": 958,
      "ID": 959,
      "ime": 960,
      "ĠQ": 961,
      "ust": 962,
      "10": 963,
      "for": 964,
      "ters": 965,
      "ated": 966,
      "gn": 967,
      "Ġpath": 968,
      "Ke": 969,
      "ft": 970,
      "api": 971,
      "Ġint": 972,
      "mand": 973,
      "\"),": 974,
      "call": 975,
      "admin": 976,
      "sor": 977,
      "sed": 978,
      "ces": 979,
      "ĊĠĠĠĠĠĠĠĠĠ": 980,
      "tity": 981,
      "arch": 982,
      "Ġ['": 983,
      "Co": 984,
      "][": 985,
      "Ġdefault": 986,
      "nect": 987,
      "Ġ{'": 988,
      "cache": 989,
      "table": 990,
      "image": 991,
      "check": 992,
      "Ġid": 993,
      "pi": 994,
      "ffer": 995,
      "Ġcur": 996,
      "label": 997,
      "Ġwith": 998,
      "map": 999,
      "nd": 1000,
      "Ġdate": 1001,
      "prot": 1002,
      "EN": 1003,
      "aders": 1004,
      "mage": 1005,
      "Ġwh": 1006,
      "Ġstart": 1007,
      "stream": 1008,
      "Ġitem": 1009,
      "lete": 1010,
      "ĊĠĠĠĠĠĠĠĠĊĠĠĠĠĠĠĠ": 1011,
      "tocol": 1012,
      "ark": 1013,
      "Key": 1014,
      "unction": 1015,
      "bug": 1016,
      "work": 1017,
      "result": 1018,
      "new": 1019,
      "lug": 1020,
      "pos": 1021,
      "last": 1022,
      "TI": 1023,
      "'):": 1024,
      "Set": 1025,
      "Di": 1026,
      "da": 1027,
      "ĠĊĠĠĠĠĠĠĠ": 1028,
      "html": 1029,
      "ant": 1030,
      "Ġbe": 1031,
      "Un": 1032,
      "do": 1033,
      "Ġclass": 1034,
      "vel": 1035,
      "Ġargs": 1036,
      "Ġmodels": 1037,
      "Se": 1038,
      "'],": 1039,
      "12": 1040,
      "man": 1041,
      "Ġattr": 1042,
      "space": 1043,
      "Ġparams": 1044,
      "Ġadd": 1045,
      "action": 1046,
      "loat": 1047,
      "rame": 1048,
      "==": 1049,
      "ak": 1050,
      "ĊĠĠĠĠĠĠĠĠĠĠĠĠĠĠĠĠĠĠĠĠĠĠĠĠĠĠĠĠĠĠĠ": 1051,
      "AN": 1052,
      "Ad": 1053,
      "doc": 1054,
      "Ġsys": 1055,
      "core": 1056,
      "Ġmax": 1057,
      "params": 1058,
      "split": 1059,
      "ffset": 1060,
      "Int": 1061,
      "Ġpy": 1062,
      "ity": 1063,
      "tin": 1064,
      "((": 1065,
      "ĠE": 1066,
      "ĠR": 1067,
      "ttp": 1068,
      "event": 1069,
      "ray": 1070,
      "models": 1071,
      "indow": 1072,
      "ast": 1073,
      "items": 1074,
      "SI": 1075,
      "Ġcontext": 1076,
      "ĠĠĊĠĠĠĠĠĠĠ": 1077,
      "lace": 1078,
      "Ġlist": 1079,
      "icode": 1080,
      "parse": 1081,
      "Par": 1082,
      "link": 1083,
      "iti": 1084,
      "iter": 1085,
      "Ġsh": 1086,
      "filter": 1087,
      "ron": 1088,
      "xml": 1089,
      "cord": 1090,
      "body": 1091,
      "Ġprint": 1092,
      "amp": 1093,
      "Ġsuper": 1094,
      "ton": 1095,
      "are": 1096,
      "ght": 1097,
      "Ġ5": 1098,
      "we": 1099,
      "'])": 1100,
      "Ġline": 1101,
      "current": 1102,
      "uid": 1103,
      "(_": 1104,
      "yn": 1105,
      "arget": 1106,
      "store": 1107,
      "ĠĠĠĠĊĠĠĠĠĠĠĠ": 1108,
      "PE": 1109,
      "amb": 1110,
      "ies": 1111,
      "page": 1112,
      "Bu": 1113,
      "RO": 1114,
      "AC": 1115,
      "File": 1116,
      "ound": 1117,
      "Ġon": 1118,
      "dit": 1119,
      "module": 1120,
      "utils": 1121,
      "ager": 1122,
      "ann": 1123,
      "host": 1124,
      "rol": 1125,
      "aliz": 1126,
      "net": 1127,
      "GE": 1128,
      "ging": 1129,
      "tra": 1130,
      "parent": 1131,
      "Ġpre": 1132,
      "Ġconfig": 1133,
      "02": 1134,
      "ake": 1135,
      "sition": 1136,
      "64": 1137,
      "Ġ->": 1138,
      "types": 1139,
      "lines": 1140,
      "List": 1141,
      "lob": 1142,
      "direct": 1143,
      "Data": 1144,
      "Ġcre": 1145,
      "Request": 1146,
      "},": 1147,
      "move": 1148,
      "Id": 1149,
      "utton": 1150,
      "Ġobj": 1151,
      "ĊĠĠĠĠĠĠĠĠĠĠĠĠĠĠĠĠĠĠĠĠĠĠĠĠĠĠĠĠĠĠĠĠĠĠĠĠĠĠĠĠĠĠĠĠĠĠĠĠĠĠĠĠĠĠĠĠĠĠĠĠĠĠĠĠĠĠĠĠĠĠĠĠĠĠĠĠĠĠĠĠ": 1152,
      "Text": 1153,
      "av": 1154,
      "Ġal": 1155,
      "'))": 1156,
      "scription": 1157,
      "Ġfe": 1158,
      "fields": 1159,
      "[:": 1160,
      "stri": 1161,
      "Ġrange": 1162,
      "://": 1163,
      "ers": 1164,
      "ĠĠĠĠĠĊĠĠĠĠĠĠĠ": 1165,
      "ĠĠĠĠĠĠĊĠĠĠĠĠĠĠ": 1166,
      "mon": 1167,
      "bute": 1168,
      "ded": 1169,
      "Exception": 1170,
      "})": 1171,
      "Ġtoken": 1172,
      "post": 1173,
      "Ġcode": 1174,
      "clo": 1175,
      "point": 1176,
      "heck": 1177,
      "TY": 1178,
      "use": 1179,
      "duct": 1180,
      "tain": 1181,
      "assertEquals": 1182,
      "Bo": 1183,
      "arn": 1184,
      "run": 1185,
      "ĊĊĊĠĠĠ": 1186,
      "\">": 1187,
      "Ġend": 1188,
      "Ġcom": 1189,
      "order": 1190,
      "local": 1191,
      "sign": 1192,
      "iz": 1193,
      "ont": 1194,
      "Ġmessage": 1195,
      "ĠW": 1196,
      "Ġres": 1197,
      "values": 1198,
      "tive": 1199,
      "ambda": 1200,
      "tern": 1201,
      "ties": 1202,
      "Element": 1203,
      "func": 1204,
      "ix": 1205,
      "Ġapp": 1206,
      "ateg": 1207,
      "pected": 1208,
      "04": 1209,
      "0000": 1210,
      "feature": 1211,
      "UT": 1212,
      "ph": 1213,
      "clu": 1214,
      "filename": 1215,
      "child": 1216,
      "pack": 1217,
      "ulti": 1218,
      "Ġbu": 1219,
      "raw": 1220,
      "thon": 1221,
      "gener": 1222,
      "stamp": 1223,
      "connect": 1224,
      "save": 1225,
      "match": 1226,
      "tep": 1227,
      "var": 1228,
      "keys": 1229,
      "Ġ(\"": 1230,
      "lan": 1231,
      "men": 1232,
      "ding": 1233,
      "input": 1234,
      "box": 1235,
      "rap": 1236,
      "Ġinstance": 1237,
      "ql": 1238,
      "Ġ\"\"\"": 1239,
      "Model": 1240,
      "PO": 1241,
      "ome": 1242,
      "To": 1243,
      "ING": 1244,
      "Ġle": 1245,
      "Node": 1246,
      "pop": 1247,
      "Ġ02": 1248,
      "Ser": 1249,
      "Ġpo": 1250,
      "width": 1251,
      "Ġwhile": 1252,
      "IC": 1253,
      "project": 1254,
      "nder": 1255,
      "Ġnum": 1256,
      "(*": 1257,
      "Ġmsg": 1258,
      "Ġz": 1259,
      "Ġq": 1260,
      "prefix": 1261,
      "ld": 1262,
      "Ġby": 1263,
      "Ġoption": 1264,
      "ĠPro": 1265,
      "Vi": 1266,
      "Ġ{\"": 1267,
      "Ġsub": 1268,
      "Ġdb": 1269,
      "be": 1270,
      "char": 1271,
      "Ġ6": 1272,
      "Ġbo": 1273,
      "ors": 1274,
      "range": 1275,
      "dent": 1276,
      "andle": 1277,
      "Ġbase": 1278,
      "its": 1279,
      "Ġ''": 1280,
      "Var": 1281,
      "Ġ'%": 1282,
      "Ġother": 1283,
      "open": 1284,
      "pri": 1285,
      "spec": 1286,
      "Ġcontent": 1287,
      "names": 1288,
      "\\\\": 1289,
      "ave": 1290,
      "msg": 1291,
      "select": 1292,
      "ump": 1293,
      "quired": 1294,
      "Case": 1295,
      ">>": 1296,
      "process": 1297,
      "right": 1298,
      "Ġan": 1299,
      "Base": 1300,
      "face": 1301,
      "Ġno": 1302,
      "]:": 1303,
      "ĠĠĠĊĠĠĠĠĠĠĠ": 1304,
      "delete": 1305,
      "Ġdo": 1306,
      "column": 1307,
      "Col": 1308,
      "Response": 1309,
      "lat": 1310,
      "11": 1311,
      "CO": 1312,
      "ĊĊĠĠĠĠĠĠĠĠĠĠĠĠĠĠĠĠĠĠĠĠĠĠĠĠĠĠĠĠĠĠĠĠĠĠĠĠĠĠĠĠĠĠĠĠĠĠĠĠĠĠĠĠĠĠĠĠĠĠĠĠĠĠĠĠ": 1313,
      "Message": 1314,
      "settings": 1315,
      "chema": 1316,
      "AME": 1317,
      "LO": 1318,
      "service": 1319,
      "Time": 1320,
      "DI": 1321,
      "tinue": 1322,
      "cls": 1323,
      "top": 1324,
      "lot": 1325,
      "Ġquery": 1326,
      "lication": 1327,
      "yle": 1328,
      "ĠValue": 1329,
      "Ġdatetime": 1330,
      "lect": 1331,
      "uple": 1332,
      "HT": 1333,
      "tic": 1334,
      "Handler": 1335,
      "pk": 1336,
      "Ġerror": 1337,
      "options": 1338,
      "find": 1339,
      "property": 1340,
      "UR": 1341,
      "ds": 1342,
      "Ġevent": 1343,
      "Ġlogging": 1344,
      "Ar": 1345,
      "Ġsettings": 1346,
      "istr": 1347,
      "Ġindex": 1348,
      "Ġdict": 1349,
      "unk": 1350,
      "FI": 1351,
      "ched": 1352,
      "Ġj": 1353,
      "sit": 1354,
      "array": 1355,
      "rate": 1356,
      "Get": 1357,
      "assword": 1358,
      "change": 1359,
      "ved": 1360,
      "Ġdoc": 1361,
      "attri": 1362,
      "queue": 1363,
      "25": 1364,
      "trol": 1365,
      "ations": 1366,
      "Ġstream": 1367,
      "ie": 1368,
      "ong": 1369,
      "fir": 1370,
      "ister": 1371,
      "MA": 1372,
      "ns": 1373,
      "reak": 1374,
      "Ġparent": 1375,
      "Ġnp": 1376,
      "als": 1377,
      "Ġstate": 1378,
      "CH": 1379,
      "ĠĠĠĠĠĠĠĊĠĠĠĠĠĠĠ": 1380,
      "ĊĠĠĠĠĠĠĠĠĠĠĠĠĠĠĠĠĠĠĠĠĠĠĠĠĠ": 1381,
      "coding": 1382,
      "Ġcontinue": 1383,
      "next": 1384,
      "viron": 1385,
      "',),": 1386,
      "Ġcls": 1387,
      "ments": 1388,
      "uto": 1389,
      "uc": 1390,
      "ion": 1391,
      "Ġro": 1392,
      "tifi": 1393,
      "ĠCon": 1394,
      "emp": 1395,
      "debug": 1396,
      "16": 1397,
      "aw": 1398,
      "':('": 1399,
      "Ġobject": 1400,
      "disp": 1401,
      "_(": 1402,
      "md": 1403,
      "ms": 1404,
      "elp": 1405,
      "Ġsize": 1406,
      "day": 1407,
      "Ġmin": 1408,
      "ols": 1409,
      "Ġarg": 1410,
      ")))": 1411,
      "adata": 1412,
      "ĠRe": 1413,
      "ES": 1414,
      "clude": 1415,
      "->": 1416,
      "strip": 1417,
      "alog": 1418,
      "Ġac": 1419,
      "~~": 1420,
      "ĠQt": 1421,
      "Object": 1422,
      "ain": 1423,
      "foo": 1424,
      "ĊĊĠĠĠĠĠĠĠĠĠĠĠĠĠĠĠĠĠĠĠĠĠĠĠĠĠĠĠĠĠĠĠĠ": 1425,
      "Ġmatch": 1426,
      "UL": 1427,
      "sk": 1428,
      "tags": 1429,
      "ĠIn": 1430,
      "AD": 1431,
      "output": 1432,
      "cho": 1433,
      "uri": 1434,
      "block": 1435,
      "000": 1436,
      "ole": 1437,
      "Po": 1438,
      "[-": 1439,
      "ĊĠĠĠĠĠĠĠĠĠĠĠĠĠĠĠĠĠĠĠĠĠĠĠĠĠĠĠĠĠĠĠĠĠĠĠĠĠĠĠĠĠĠĠĠĠĠĠĠĠĠĠĠĠĠĠĠĠĠĠĠĠĠĠĠĠĠĠĠĠ": 1440,
      "No": 1441,
      "ĊĊĠĠĠĠĠĠĠĠĠĠĠĠĠĠĠĠĠĠĠĠĠĠĠĠĠĠĠĠĠĠĠĠĠĠĠĠĠĠĠĠĠĠĠĠĠĠĠĠĠĠĠĠĠĠĠĠĠĠĠĠĠĠĠĠĠĠĠĠĠĠĠĠ": 1442,
      "ĊĠĠĠĠĠĠĠĠĠĠĠĠĠĠĠĠĠĠĠĠ": 1443,
      "pp": 1444,
      "err": 1445,
      "byte": 1446,
      "Ġopen": 1447,
      "df": 1448,
      "ML": 1449,
      "><": 1450,
      "ep": 1451,
      "actor": 1452,
      "okup": 1453,
      "apping": 1454,
      "actory": 1455,
      "ite": 1456,
      "TH": 1457,
      "Not": 1458,
      "Ġdel": 1459,
      "TP": 1460,
      "Ġrow": 1461,
      "br": 1462,
      "session": 1463,
      "NAME": 1464,
      "ush": 1465,
      "search": 1466,
      "abled": 1467,
      "ĠĠĠĠĠĠĠĠĠĠĠĠĠĠĠĠĠĠĠĠĠĠĠĠĠĠĠĠĠĠĠĠĠĠĠĠĠĠĠĠ": 1468,
      "close": 1469,
      "files": 1470,
      "Ġval": 1471,
      "apper": 1472,
      "limit": 1473,
      "Ġ]": 1474,
      "('/": 1475,
      "connection": 1476,
      "TestCase": 1477,
      "').": 1478,
      "fail": 1479,
      "task": 1480,
      "ync": 1481,
      "----": 1482,
      "({": 1483,
      "replace": 1484,
      "job": 1485,
      "mark": 1486,
      "Ġcreate": 1487,
      "ll": 1488,
      "Item": 1489,
      "ĠValueError": 1490,
      "Ġat": 1491,
      "coder": 1492,
      "ache": 1493,
      "teger": 1494,
      "pr": 1495,
      "Man": 1496,
      "sha": 1497,
      "Ġtag": 1498,
      "exten": 1499,
      "cri": 1500,
      "exec": 1501,
      "andom": 1502,
      "Ġversion": 1503,
      "lection": 1504,
      "FA": 1505,
      "By": 1506,
      "Tr": 1507,
      "mis": 1508,
      "Ġaction": 1509,
      "Ġkwargs": 1510,
      "not": 1511,
      "Size": 1512,
      "istry": 1513,
      "ATE": 1514,
      "Tag": 1515,
      "led": 1516,
      "number": 1517,
      "Ġ|": 1518,
      "layer": 1519,
      "Ġjson": 1520,
      "ategory": 1521,
      "Ġlo": 1522,
      "Ġsource": 1523,
      "mber": 1524,
      "mode": 1525,
      "Ġcall": 1526,
      "rc": 1527,
      "unicode": 1528,
      "swith": 1529,
      "element": 1530,
      "03": 1531,
      "butes": 1532,
      "handler": 1533,
      "MP": 1534,
      "ĊĠĠĠĠĠĠĠĠĠĠĠĠĠĠĠĠĠĠĠĠĠĠ": 1535,
      "header": 1536,
      "offset": 1537,
      "Ġimage": 1538,
      "Char": 1539,
      "quen": 1540,
      "Ġcheck": 1541,
      "eta": 1542,
      "atic": 1543,
      "UN": 1544,
      "cy": 1545,
      "let": 1546,
      "copy": 1547,
      "compile": 1548,
      "Ġwe": 1549,
      "TYPE": 1550,
      "LA": 1551,
      "Ġtr": 1552,
      "Ġtemplate": 1553,
      "meta": 1554,
      "my": 1555,
      "ĊĠĠĠĠĠĠĠĠĠĠĠĠĠĠĠĠĠĠĠĠĠĠĠĠĠĠĠĠĠ": 1556,
      "99": 1557,
      "Ġoprot": 1558,
      "Ġmethod": 1559,
      "old": 1560,
      "go": 1561,
      "lower": 1562,
      "At": 1563,
      "headers": 1564,
      "ym": 1565,
      "ĊĊĠĠĠĠĠĠĠĠĠĠĠĠĠĠĠĠĠĠĠĠĠĠĠĠĠĠĠĠĠĠĠĠĠĠĠĠĠĠĠĠ": 1566,
      "Up": 1567,
      "ĊĠĠĠĠĠĠĠĠĠĠĠĠĠĠĠĠĠĠĠĠĠĠĠĠĠĠĠĠĠĠĠĠĠĠĠĠĠĠĠĠĠĠĠĠĠĠĠĠĠĠĠĠĠĠĠĠĠĠĠĠĠĠĠĠĠĠĠĠĠĠ": 1568,
      "ob": 1569,
      "height": 1570,
      "Com": 1571,
      "cs": 1572,
      "=[": 1573,
      ")]": 1574,
      "'\\": 1575,
      "tail": 1576,
      "View": 1577,
      "ou": 1578,
      "Add": 1579,
      "lags": 1580,
      "function": 1581,
      "Ġgetattr": 1582,
      "ĠĠĠĠĊĠĠĠ": 1583,
      "tadata": 1584,
      "US": 1585,
      "ci": 1586,
      "color": 1587,
      "verse": 1588,
      "Log": 1589,
      "register": 1590,
      "Ġcurrent": 1591,
      "datetime": 1592,
      "alize": 1593,
      "password": 1594,
      "FF": 1595,
      "uld": 1596,
      "email": 1597,
      "xy": 1598,
      "lease": 1599,
      "other": 1600,
      "lem": 1601,
      "username": 1602,
      "Th": 1603,
      "Ġ\"%": 1604,
      ")):": 1605,
      "CT": 1606,
      "ĊĠĠ": 1607,
      "sions": 1608,
      "annel": 1609,
      "Ġ'\\": 1610,
      "Ġauth": 1611,
      "ĊĠĠĠĠĠĠĠĠĠĠĠĠĠĠĠĠĠĠ": 1612,
      "Widget": 1613,
      "ĊĠĠĠĠĠĠĠĠĠĠĠĠĠĠĠĠĠĠĠĠĠ": 1614,
      "\"))": 1615,
      "orted": 1616,
      "rel": 1617,
      "Ġoutput": 1618,
      "part": 1619,
      "bar": 1620,
      "target": 1621,
      "Ġbreak": 1622,
      "quo": 1623,
      "timestamp": 1624,
      "KE": 1625,
      "attern": 1626,
      "gin": 1627,
      "remove": 1628,
      "ĊĠĠĠĠĠĠĠĠĠĠĠĠĠĠĠĠĠĠĠĠĠĠĠĠĠĠĠĠĠĠĠĠĠĠĠĠĠĠĠĠĠĠĠĠĠĠĠĠĠĠĠĠĠĠĠĠĠĠĠĠĠĠĠĠĠĠĠ": 1629,
      "Ġcomp": 1630,
      "bin": 1631,
      "ample": 1632,
      "'.": 1633,
      "ill": 1634,
      "Ġver": 1635,
      "command": 1636,
      "tal": 1637,
      "ats": 1638,
      "uuid": 1639,
      "ĊĠĠĠĠĠĠĠĠĊĠĠĠ": 1640,
      "##": 1641,
      "abs": 1642,
      "sys": 1643,
      "req": 1644,
      "ĊĠĠĠĠĠĠĠĠĠĠĠĠĠĠĠĠĠĠĠĠĠĠĠĠĠĠ": 1645,
      "TO": 1646,
      "ĊĠĠĠĠĠĠĠĠĠĠĠĠĠĠĠĠĠ": 1647,
      "ps": 1648,
      "={": 1649,
      "vo": 1650,
      "level": 1651,
      "ilter": 1652,
      ").__": 1653,
      "Ġvi": 1654,
      "down": 1655,
      "Ġ8": 1656,
      "Buffer": 1657,
      "ick": 1658,
      "','": 1659,
      "Ġtable": 1660,
      "Lo": 1661,
      "seri": 1662,
      "Ġchild": 1663,
      "tribute": 1664,
      "conf": 1665,
      "ittest": 1666,
      "send": 1667,
      "Qu": 1668,
      "ĊĠĠĠĠĠĠĠĠĠĠĠĠĠĠĠĠĠĠĠĠĠĠĠĠĠĠĠĠĠĠĠĠĠĠĠ": 1669,
      "TR": 1670,
      "alized": 1671,
      "_:": 1672,
      "struct": 1673,
      "User": 1674,
      "ĊĊĠĠĠĠĠĠĠĠĠĠĠĠĠĠĠĠĠĠĠĠĠĠĠĠĠĠĠĠĠĠĠĠĠĠĠĠĠĠĠĠĠĠĠĠĠĠĠĠĠĠĠĠĠĠĠĠ": 1675,
      "Ġ10": 1676,
      "tree": 1677,
      "rence": 1678,
      "first": 1679,
      "cal": 1680,
      "can": 1681,
      "Ġxml": 1682,
      "Ġport": 1683,
      "ids": 1684,
      "Ġgroup": 1685,
      "Ġreq": 1686,
      "Ġrun": 1687,
      "ĊĠĠĠĠĠĠĠĠĠĠĠĠĠĠ": 1688,
      "encode": 1689,
      "ĊĠĠĠĠĠĠĠĠĠĠĠĠĠ": 1690,
      "sup": 1691,
      "ĊĠĠĠĠĠĠĠĠĠĠĠĠĠĠĠĠĠĠĠĠĠĠĠĠĠĠĠĠĠĠĠĠĠĠĠĠĠĠĠĠĠĠĠĠĠĠĠĠĠĠĠĠĠĠĠĠĠĠĠĠĠĠĠĠĠĠĠĠĠĠĠĠĠĠĠĠ": 1692,
      "Res": 1693,
      "\"):": 1694,
      "ĊĠĠĠĠĠĠĠĠĠĠĠĠĠĠĠĠĠĠĠĠĠĠĠĠĠĠĠĠĠĠĠĠĠĠĠĠĠĠĠĠĠĠĠĠĠĠĠĠĠĠĠĠĠĠĠĠĠĠĠĠĠĠĠĠĠĠĠĠĠĠĠĠĠ": 1695,
      "ĊĊĠĠĠĠĠĠĠĠĠĠĠĠĠĠĠĠĠĠĠĠĠĠĠĠĠĠĠĠĠĠĠĠĠĠĠĠĠĠĠĠĠĠĠĠĠĠĠĠ": 1696,
      "ret": 1697,
      "entry": 1698,
      "NO": 1699,
      "Ġ),": 1700,
      "frame": 1701,
      "Ġ.": 1702,
      "Ġpost": 1703,
      "Ġ[\"": 1704,
      "make": 1705,
      "del": 1706,
      "Num": 1707,
      "CON": 1708,
      "State": 1709,
      "ĊĠĠĠĠĠĠĠĠĠĠĠĊĊĠĠĠ": 1710,
      "IO": 1711,
      "Ġfeature": 1712,
      "ĠOption": 1713,
      "STR": 1714,
      "ocket": 1715,
      "\"],": 1716,
      "POST": 1717,
      "perties": 1718,
      "SS": 1719,
      "200": 1720,
      "Ġrender": 1721,
      "mary": 1722,
      "Ġiprot": 1723,
      "Ġbody": 1724,
      "fied": 1725,
      "proto": 1726,
      "ĊĠĠĠĠĠĠĠĠĠĠĠĠĠĠĠĠĠĠĠĠĠĠĠĠĠĠĠĠ": 1727,
      "lank": 1728,
      "Ġexpected": 1729,
      "cursor": 1730,
      "ĊĠĠĠĠĠĠĠĠĠĠĠĠĠĠĠĠĠĠĠĠĠĠĠĠĠĠĠĠĠĠĠĠĠĠĠĠĠĠĠĠĠĠĠĠĠĠĠĠĠĠĠĠĠĠĠĠĠĠĠĠĠĠĠĠĠĠĠĠĠĠĠĠĠĠ": 1731,
      "Ġ'/": 1732,
      "ww": 1733,
      "trib": 1734,
      "ear": 1735,
      "Ġfilename": 1736,
      "ssion": 1737,
      "ĊĠĠĠĠĠĠĠĠĠĠĠĠĠĠĠĠĠĠĠĠĠĠĠĠĠĠĠĠĠĠ": 1738,
      "Ġproject": 1739,
      "now": 1740,
      "dia": 1741,
      "15": 1742,
      "location": 1743,
      "VarInt": 1744,
      "of": 1745,
      "angu": 1746,
      "ĠPy": 1747,
      ".\")": 1748,
      "Ġ},": 1749,
      "bytes": 1750,
      "VER": 1751,
      "description": 1752,
      "Config": 1753,
      "Ġmodule": 1754,
      "Ġhasattr": 1755,
      "He": 1756,
      "dis": 1757,
      "anguage": 1758,
      "ĠString": 1759,
      "ash": 1760,
      "Ġfunc": 1761,
      "Ġparse": 1762,
      "td": 1763,
      "Ġpage": 1764,
      "olume": 1765,
      "left": 1766,
      "></": 1767,
      ")),": 1768,
      "fin": 1769,
      "End": 1770,
      "ell": 1771,
      "ination": 1772,
      "Ġoptions": 1773,
      "Ġcount": 1774,
      "okie": 1775,
      "ĠHttp": 1776,
      "Ġformat": 1777,
      "Ġnext": 1778,
      "pub": 1779,
      "parser": 1780,
      "render": 1781,
      "views": 1782,
      "gine": 1783,
      "Ġ\"\"": 1784,
      "Format": 1785,
      "angle": 1786,
      "Gui": 1787,
      "edge": 1788,
      "Ġhttp": 1789,
      "Auth": 1790,
      "ntry": 1791,
      "''": 1792,
      "Ġpos": 1793,
      "adi": 1794,
      "Sh": 1795,
      "Ġ>=": 1796,
      "etch": 1797,
      "30": 1798,
      "record": 1799,
      "Fe": 1800,
      "Ġper": 1801,
      "Qt": 1802,
      "Event": 1803,
      "ĠTest": 1804,
      "float": 1805,
      "ameters": 1806,
      "ait": 1807,
      "ansp": 1808,
      "window": 1809,
      "ists": 1810,
      "Ġ<=": 1811,
      "Ġhelp": 1812,
      "ble": 1813,
      "AP": 1814,
      "step": 1815,
      "air": 1816,
      "Ġlambda": 1817,
      "style": 1818,
      "login": 1819,
      "buffer": 1820,
      ":%": 1821,
      "Ġheaders": 1822,
      "Ġfin": 1823,
      "Box": 1824,
      "ĊĠĠĠĠĠĠĠĠĠĠĠĠĠĠĠĠĠĠĠĠĠĠĠĠĠĠĠĠĠĠĠĠĠĠĠĠĠĠĠĠĠĠĠĠĠĠĠĠĠĠĠĠĠĠĠĠĠĠĠĠĠĠĠĠĠĠĠĠĠĠĠĠĠĠĠĠĠ": 1825,
      "Ġfloat": 1826,
      "Ġnet": 1827,
      "cape": 1828,
      "escape": 1829,
      "From": 1830,
      "LI": 1831,
      "Ġconnection": 1832,
      "cret": 1833,
      "20": 1834,
      "cp": 1835,
      "ĊĠĠĠĠĠĠĠĠĠĠĠĠĠĠĠĠĠĠĠĠĠĠĠĠĠĠĠĠĠĠĠĠĠĠĠĠĠĠĠĠĠĠĠĠĠĠĠĠĠĠĠĠĠĠĠĠĠĠĠĠĠĠĠĠĠĠĠĠĠĠĠĠĠĠĠĠĠĠ": 1836,
      "Out": 1837,
      "schema": 1838,
      "AB": 1839,
      "aises": 1840,
      "ogle": 1841,
      "Ġcle": 1842,
      "forms": 1843,
      "Ġstring": 1844,
      "**": 1845,
      "Ġsp": 1846,
      "cei": 1847,
      "Ġtrans": 1848,
      "Ver": 1849,
      "clean": 1850,
      "Property": 1851,
      "lated": 1852,
      "Ġge": 1853,
      "Ġreg": 1854,
      "address": 1855,
      "ected": 1856,
      "secon": 1857,
      "site": 1858,
      "warn": 1859,
      "book": 1860,
      "lobal": 1861,
      "active": 1862,
      "Date": 1863,
      "manager": 1864,
      "Ġlabel": 1865,
      "ili": 1866,
      "Ġ'.": 1867,
      "build": 1868,
      "Ġroot": 1869,
      "django": 1870,
      "position": 1871,
      "Ġstatus": 1872,
      "Ġvalid": 1873,
      "ĊĠĠĠĠĠĠĠĠĠĠĠĠĠĠĠĠĠĠĠĠĠĠĠĠĠĠĠĠĠĠĠĠĠĠĠĠĠĠĠĠĠĠĠĠĠĠĠĠĠĠĠĠĠĠĠĠĠĠĠĠĠĠĠĠĠĠ": 1874,
      "handle": 1875,
      "ale": 1876,
      "====": 1877,
      "ĊĠĠĠĠĠĠĠĠĠĠĠĠĠĠĠĠĠĠĠĠĠĠĠĠĠĠĠĠĠĠĠĠĠĠĠĠĠĠĠĠĠĠĠĠĠĠĠĠĠĠĠĠĠĠĠĠĠĠĠĠĠĠĠĠĠ": 1878,
      "author": 1879,
      "ĠTType": 1880,
      "Py": 1881,
      "Ġupdate": 1882,
      "ek": 1883,
      "ĊĠĠĠĠĠĠĠĠĠĠĠĠĠĠĠĠĠĠĠĠĠĠĠĠĠĠĠĠĠĠĠĠĠĠĠĠĠĠĠĠĠĠĠĠĠĠĠĠĠĠĠĠĠĠĠĠĠĠĠĠĠĠĠĠĠĠĠĠ": 1884,
      "ny": 1885,
      "norm": 1886,
      "Ġiniti": 1887,
      "sing": 1888,
      "Ġ7": 1889,
      "pect": 1890,
      "domain": 1891,
      "repr": 1892,
      "slug": 1893,
      "widget": 1894,
      "contrib": 1895,
      "exception": 1896,
      "Ġuti": 1897,
      "Index": 1898,
      "Ġthis": 1899,
      "Ġtitle": 1900,
      ".')": 1901,
      "IT": 1902,
      "Ġcan": 1903,
      "enter": 1904,
      "Ġclient": 1905,
      "Path": 1906,
      "Table": 1907,
      "Ġserver": 1908,
      "Ġchar": 1909,
      "rec": 1910,
      "amo": 1911,
      "DO": 1912,
      "Protocol": 1913,
      "The": 1914,
      "callback": 1915,
      "NT": 1916,
      "Ġlast": 1917,
      "environ": 1918,
      "ally": 1919,
      ":]": 1920,
      "dest": 1921,
      "entity": 1922,
      "Ġvar": 1923,
      "startswith": 1924,
      "mented": 1925,
      "shape": 1926,
      "lugin": 1927,
      "Ġ200": 1928,
      "Ġvalues": 1929,
      "orage": 1930,
      "tainer": 1931,
      "children": 1932,
      "quote": 1933,
      "EL": 1934,
      "river": 1935,
      "=%": 1936,
      "display": 1937,
      "fy": 1938,
      "Content": 1939,
      "assertTrue": 1940,
      "ĠOptional": 1941,
      "_):": 1942,
      "Valid": 1943,
      "cket": 1944,
      "quence": 1945,
      "ices": 1946,
      "Ġparser": 1947,
      "Core": 1948,
      "ĠKey": 1949,
      "Ġmo": 1950,
      "ĠĠĠĠĠĠĠĠĠĠĠ": 1951,
      "QU": 1952,
      "Ac": 1953,
      "org": 1954,
      "opy": 1955,
      "Ġlogger": 1956,
      "lambda": 1957,
      "Ġpri": 1958,
      "hash": 1959,
      "34": 1960,
      "cor": 1961,
      "ual": 1962,
      "'].": 1963,
      "Port": 1964,
      "irst": 1965,
      "Ġtw": 1966,
      "mplemented": 1967,
      "util": 1968,
      "product": 1969,
      "ĠĊĠĠĠĠĠĠĠĠĠĠĠ": 1970,
      "ice": 1971,
      "TER": 1972,
      "skip": 1973,
      "show": 1974,
      "ener": 1975,
      "]]": 1976,
      "exp": 1977,
      "Ġhost": 1978,
      "raph": 1979,
      "nodes": 1980,
      "ĊĠĠĠĠĠĠĠĠĠĠĠĠĠĠĠĠĠĠĠĠĠĠĠĠĠĠĠĠĠĠĠĠĠĠĠĠĠĠĠĠĠĠĠĠĠĠĠĠĠĠĠĠĠĠĠĠĠĠĠĠĠĠĠĠĠĠĠĠĠĠĠ": 1981,
      "clear": 1982,
      "Dict": 1983,
      "KEY": 1984,
      "Ġ'<": 1985,
      "Pre": 1986,
      "ĠX": 1987,
      "va": 1988,
      "onent": 1989,
      "less": 1990,
      "xa": 1991,
      "100": 1992,
      "iss": 1993,
      "Raises": 1994,
      "RI": 1995,
      "ative": 1996,
      "oken": 1997,
      "uration": 1998,
      "GET": 1999,
      "sum": 2000,
      "idx": 2001,
      "Ġall": 2002,
      "ify": 2003,
      "network": 2004,
      "Button": 2005,
      "Ġuse": 2006,
      "Ġtarget": 2007,
      "Ġread": 2008,
      "application": 2009,
      "(?": 2010,
      "Do": 2011,
      "Entry": 2012,
      "Context": 2013,
      "Ġsign": 2014,
      "generate": 2015,
      "ĠNot": 2016,
      "ped": 2017,
      ".\"": 2018,
      "50": 2019,
      "riter": 2020,
      "CharField": 2021,
      "Number": 2022,
      "ĊĠĠĠĠĠĠĠĠĠĠĠĠĠĠĠĠĠĠĠĠĠĠĠĠĠĠĠĠĠĠĠĠĠĠĠĠĠĠĠ": 2023,
      "cale": 2024,
      "edit": 2025,
      "umer": 2026,
      "ĊĠĠĠĠĠĠĠĠĠĠĠĠĠĠĠĠĠĠĠĠĠĠĠĠĠĠĠĠĠĠĠĠĠĠĠĠĠĠĠĠĠĠĠĠĠĠĠĠĠĠĠĠĠĠĠĠĠĠĠĠĠĠĠĠĠĠĠĠĠĠĠĠĠĠĠĠĠĠĠĠĠĠĠĠĠĠĠĠĠĠĠĠĠĠĠĠ": 2027,
      "over": 2028,
      "older": 2029,
      "addon": 2030,
      "ULT": 2031,
      "selected": 2032,
      "cript": 2033,
      "HTTP": 2034,
      "URL": 2035,
      "Ġ#": 2036,
      "round": 2037,
      "nown": 2038,
      "script": 2039,
      "80": 2040,
      "UM": 2041,
      "Service": 2042,
      "ansport": 2043,
      "entic": 2044,
      "resource": 2045,
      "Ġdest": 2046,
      "ĠUser": 2047,
      "bot": 2048,
      "SC": 2049,
      "ference": 2050,
      "13": 2051,
      "ĊĠĠĠĠĠĠĠĠĠĠĠĠĠĠĠĠĠĠĠĠĠĠĠĠĠĠĠĠĠĠĠĠĠĠĠĠĠĠĠĠĠĠĠĠĠĠĠĠĠĠĠĠĠĠĠĠĠĠĠĠĠĠĠĠĠĠĠĠĠĠĠĠĠĠĠ": 2052,
      "Ġfields": 2053,
      "assertRaises": 2054,
      "the": 2055,
      "Ġblock": 2056,
      "bose": 2057,
      "\"].": 2058,
      "22": 2059,
      "gex": 2060,
      "ĠType": 2061,
      "Ġopt": 2062,
      "Be": 2063,
      "Color": 2064,
      "Ġelement": 2065,
      "static": 2066,
      "Str": 2067,
      "Class": 2068,
      "fs": 2069,
      "Ġeq": 2070,
      "utf": 2071,
      "dition": 2072,
      "ink": 2073,
      "ĊĊĠĠĠĠĠĠĠĠĠĠĠĠĠĠĠ": 2074,
      "ĠException": 2075,
      "irbyte": 2076,
      "Select": 2077,
      ">'": 2078,
      "imple": 2079,
      "atab": 2080,
      "button": 2081,
      "Ġentry": 2082,
      "Image": 2083,
      "ĠĊĠĠĠ": 2084,
      "reen": 2085,
      "Ġlines": 2086,
      "rid": 2087,
      "ud": 2088,
      "required": 2089,
      "metadata": 2090,
      "tk": 2091,
      "14": 2092,
      "MO": 2093,
      "decode": 2094,
      "multi": 2095,
      "uccess": 2096,
      "TION": 2097,
      "NS": 2098,
      "Ġprefix": 2099,
      "ustom": 2100,
      "ping": 2101,
      "/%": 2102,
      "ĊĠĠĠĠĠĠĠĠĠĠĠĠĠĠĠĠĠĠĠĠĠĠĠĠĠĠĠĠĠĠĠĠĠĠ": 2103,
      "arti": 2104,
      "python": 2105,
      "ous": 2106,
      "ĠSt": 2107,
      "Ġcache": 2108,
      "attributes": 2109,
      "Ġiter": 2110,
      "Ġax": 2111,
      "linen": 2112,
      "ĊĠĠĠĠĠĠĠĠĠĠĠĠĠĠĠĠĠĠĠĠĠĠĠĠĠĠĠĠĠĠĠĠĠĠĠĠĠ": 2113,
      "Ġattri": 2114,
      "Ġxrange": 2115,
      "Ġ],": 2116,
      "ĠList": 2117,
      "isted": 2118,
      "Ġallow": 2119,
      "Call": 2120,
      "ting": 2121,
      "mod": 2122,
      "igh": 2123,
      "Ġ&": 2124,
      "cli": 2125,
      "xe": 2126,
      "Page": 2127,
      "np": 2128,
      "'}": 2129,
      "iled": 2130,
      "Parser": 2131,
      "tom": 2132,
      "STRING": 2133,
      "zone": 2134,
      "ameter": 2135,
      "quire": 2136,
      "ĊĠĠĠĠĠĠĠĠĠĠĠĠĠĠĠĠĠĠĠĠĠĠĠĊĠĠĠĠĠĠĠĠĠĠĠĠĠĠĠĠĠĠĠĠĠĠĠ": 2137,
      "Ġwidth": 2138,
      "Comp": 2139,
      "engine": 2140,
      "Le": 2141,
      "ik": 2142,
      "tact": 2143,
      "cope": 2144,
      "33": 2145,
      "ORM": 2146,
      "resh": 2147,
      "55": 2148,
      "ĊĠĠĠĠĠĠĠĠĠĠĠĠĠĠĠĠĠĠĠĠĠĠĠĠĠĠĠĠĠĠĠĠĠĠĠĠĠĠ": 2149,
      "Ġold": 2150,
      "asses": 2151,
      "Ġpassword": 2152,
      "tenant": 2153,
      "stop": 2154,
      "Implemented": 2155,
      "SP": 2156,
      "_)": 2157,
      "bl": 2158,
      "atalog": 2159,
      "Count": 2160,
      "wh": 2161,
      "access": 2162,
      "FAULT": 2163,
      "atabase": 2164,
      "Ġtask": 2165,
      "ĠProtocol": 2166,
      "iden": 2167,
      "Query": 2168,
      "ĠJ": 2169,
      "igin": 2170,
      "annot": 2171,
      "Ġattrs": 2172,
      "attrs": 2173,
      "Ġmake": 2174,
      "OL": 2175,
      "Ġinter": 2176,
      "return": 2177,
      "App": 2178,
      "Ġwx": 2179,
      "Ġbool": 2180,
      "registry": 2181,
      "Info": 2182,
      "Ġcl": 2183,
      "imal": 2184,
      "Integer": 2185,
      "Stream": 2186,
      "]))": 2187,
      "ng": 2188,
      "ĠĠĠĠĠĠĠĠĠĠĠĠĠĠĠ": 2189,
      "ED": 2190,
      "Ġenv": 2191,
      "profile": 2192,
      "exists": 2193,
      "sort": 2194,
      "logger": 2195,
      "std": 2196,
      "execute": 2197,
      "]+": 2198,
      "grap": 2199,
      "insert": 2200,
      "lish": 2201,
      "lice": 2202,
      "ĊĠĠĠĠĠĠĠĠĠĠĠĠĠĠĠĠĠĠĠĠĠĠĠĠĠĠĠĠĠĠĠĠĠĠĠĠĠĠĠĠĠĠĠ": 2203,
      "graph": 2204,
      "ĠHttpResponse": 2205,
      "iable": 2206,
      "__,": 2207,
      "ĊĠĠĠĠĠĠĠĠĠĠĠĠĠĠĠĠĠĠĠĠĠĠĠĠĠĠĠĠĠĠĠĠĠĠĠĠĠĠĠĠĠĠĠĠĠĠĠĠĠĠĠĠĠĠĠĠĠĠĠĠĠĠĠĠĠĠĠĠĠĠĠĠĠĠĠĠĠĠĠ": 2208,
      "uite": 2209,
      "ĠQtGui": 2210,
      "errors": 2211,
      "cons": 2212,
      "gram": 2213,
      "Ġorder": 2214,
      "Ġpart": 2215,
      "Ġ12": 2216,
      "device": 2217,
      "mock": 2218,
      "Ġtuple": 2219,
      "fl": 2220,
      "Ġmust": 2221,
      "18": 2222,
      "UP": 2223,
      "Manager": 2224,
      ".*": 2225,
      "properties": 2226,
      "full": 2227,
      "vert": 2228,
      "Status": 2229,
      "%(": 2230,
      "ĠV": 2231,
      "cb": 2232,
      "ĊĠĠĠĠĠĠĠĠĠĠ": 2233,
      "Client": 2234,
      "sql": 2235,
      "EX": 2236,
      "Ġ):": 2237,
      "extend": 2238,
      "encoding": 2239,
      "print": 2240,
      "...": 2241,
      "ution": 2242,
      "Ġentity": 2243,
      "24": 2244,
      "delta": 2245,
      "ants": 2246,
      "Ġoffset": 2247,
      "Ġlocal": 2248,
      "fetch": 2249,
      "ĠAny": 2250,
      "mt": 2251,
      "Ġlength": 2252,
      "Map": 2253,
      "Ġextra": 2254,
      "pl": 2255,
      "putVarInt": 2256,
      "Ġproperty": 2257,
      "troller": 2258,
      "mission": 2259,
      "Token": 2260,
      "fore": 2261,
      "member": 2262,
      "ĠNotImplemented": 2263,
      "Ġte": 2264,
      "Sub": 2265,
      "dump": 2266,
      "fter": 2267,
      "anch": 2268,
      "oauth": 2269,
      "ique": 2270,
      "Ġmark": 2271,
      "\"])": 2272,
      "stack": 2273,
      "addr": 2274,
      "Cre": 2275,
      "channel": 2276,
      "SH": 2277,
      "ĊĠĠĠĠĠĠĠĠĠĠĠĠĠĠĠĠĠĠĠĠĠĠĠĠĠĠĠĠĠĠĠĠĠĠĠĠĠĠĠĠĠĠĠĠĠĠĠĠĠĠĠĠĠĠĠĠĠĠĠĠĠĠĠ": 2278,
      "cation": 2279,
      "Code": 2280,
      "ĠAt": 2281,
      "messages": 2282,
      "cap": 2283,
      "io": 2284,
      "ĠDe": 2285,
      "ship": 2286,
      "Ġunicode": 2287,
      "Ġheight": 2288,
      "web": 2289,
      "ide": 2290,
      "tml": 2291,
      "here": 2292,
      "lineno": 2293,
      "namespace": 2294,
      "19": 2295,
      "su": 2296,
      "Encoder": 2297,
      "document": 2298,
      "comment": 2299,
      "OP": 2300,
      "Ġhandler": 2301,
      "(\\": 2302,
      "Ġman": 2303,
      "vate": 2304,
      "ĊĊĊ": 2305,
      "alias": 2306,
      "Mo": 2307,
      "Ġ[],": 2308,
      "Ġare": 2309,
      "Ġ%(": 2310,
      "tests": 2311,
      "Ġcolor": 2312,
      "Ġheader": 2313,
      "IG": 2314,
      "Ġinput": 2315,
      "auto": 2316,
      "Ġforms": 2317,
      "Ġfirst": 2318,
      "Ġfunction": 2319,
      "tools": 2320,
      "ĊĠĠĠĠĠĠĠĠĠĠĠĠĠĠĠĠĠĠĠĠĠĠĠĠĠĠĠĠĠĠĠĠĠ": 2321,
      "timeout": 2322,
      "Ġprocess": 2323,
      "groups": 2324,
      "Ġcallback": 2325,
      "For": 2326,
      "ĠCo": 2327,
      "expected": 2328,
      ")\"": 2329,
      "On": 2330,
      "Ġcursor": 2331,
      "Ġspec": 2332,
      "secret": 2333,
      "Ġit": 2334,
      "font": 2335,
      "Ġ'__": 2336,
      "ĊĠĠĠĠĠĠĠĠĠĠĠĠĠĠĠĠĠĠĠĠĠĠĠĠĠĠĠĠĠĠĠĠĠĠĠĠĠĠĠĠĠĠĠĠĠĠĠĠĠĠĠĠĠĠĠĠĠĠĠĠĠĠĠĠĠĠĠĠĠĠĠĠĠĠĠĠĠĠĠĠĠĠĠĠĠĠĠĠ": 2337,
      "Ġrecord": 2338,
      "olean": 2339,
      "Ġmap": 2340,
      "ailed": 2341,
      "argument": 2342,
      "Connection": 2343,
      "Ġrel": 2344,
      "sent": 2345,
      "Ġwidget": 2346,
      "hould": 2347,
      "diff": 2348,
      "created": 2349,
      "interface": 2350,
      "param": 2351,
      "Or": 2352,
      "SION": 2353,
      "cr": 2354,
      "ators": 2355,
      "setup": 2356,
      "Ġgl": 2357,
      "gg": 2358,
      "Ġnumber": 2359,
      "tial": 2360,
      "env": 2361,
      "account": 2362,
      "zy": 2363,
      "elper": 2364,
      "head": 2365,
      "Ġdebug": 2366,
      ">>>": 2367,
      "ĊĠĠĠĠĠĠĠĠĠĠĠĠĠĠĠĠĠĠĠĠĠĠĠĠĠĠĠĠĠĠĠĠĠĠĠĠ": 2368,
      "ĊĠĠĠĠĠĠĠĠĠĠĠĠĠĠĠĠĠĠĠĠĠĠĠĠĠĠĠĠĠĠĠĠĠĠĠĠĠĠĠĠĠĠĠĠĠĠĠ": 2369,
      "mote": 2370,
      "ĠProtocolBuffer": 2371,
      "emplate": 2372,
      "Ġcolumn": 2373,
      "ifi": 2374,
      "Ġ9": 2375,
      "pc": 2376,
      "off": 2377,
      "Ġgo": 2378,
      "404": 2379,
      "Action": 2380,
      "Ġfound": 2381,
      "buf": 2382,
      "ector": 2383,
      "56": 2384,
      "bs": 2385,
      "stats": 2386,
      "sible": 2387,
      "Ġtop": 2388,
      "cd": 2389,
      "Ġword": 2390,
      "~~~~": 2391,
      "ĊĠĠĠĠĠĠĠĠĠĠĠĠĠĠĠĠĠĠĠĠĠĠĠĠĠĠĠĠĠĠĠĠĠĠĠĠĠĠĠĠĠĠĠĠĠ": 2392,
      "ial": 2393,
      "olute": 2394,
      "Def": 2395,
      "Input": 2396,
      "opts": 2397,
      "ware": 2398,
      "section": 2399,
      "Ġ',": 2400,
      "ĊĠĠĠĠĠĠĠĠĠĠĠĠĠĠĠĠĠĠĠĠĠĠĠĠĠĠĠĠĠĠĠĠĠĠĠĠĠĠĠĠĠĠ": 2401,
      "Per": 2402,
      "Ġsql": 2403,
      "cted": 2404,
      "ics": 2405,
      "ility": 2406,
      "Ġwrite": 2407,
      "rection": 2408,
      "Ġsession": 2409,
      "sen": 2410,
      "upload": 2411,
      "ical": 2412,
      ")[": 2413,
      "Ġthread": 2414,
      "oo": 2415,
      "'t": 2416,
      "ilder": 2417,
      "Ġtemp": 2418,
      "fg": 2419,
      "Ġresults": 2420,
      "Ġct": 2421,
      "dified": 2422,
      "rt": 2423,
      "Ġli": 2424,
      "()):": 2425,
      "ĠName": 2426,
      "wait": 2427,
      "Line": 2428,
      "Ġexception": 2429,
      "lag": 2430,
      "ailable": 2431,
      "ĠK": 2432,
      "BU": 2433,
      "':'": 2434,
      "Ġad": 2435,
      "Ġview": 2436,
      "ĠNotImplementedError": 2437,
      "initi": 2438,
      "ating": 2439,
      "-%": 2440,
      "ĠCom": 2441,
      "Ġmain": 2442,
      "xture": 2443,
      "flow": 2444,
      "writeField": 2445,
      "Ġthat": 2446,
      "Ġ'_": 2447,
      "AM": 2448,
      "bind": 2449,
      "Ġlib": 2450,
      "Ġdescription": 2451,
      "tension": 2452,
      "GL": 2453,
      "gest": 2454,
      "thread": 2455,
      "Group": 2456,
      "Ġrandom": 2457,
      "ength": 2458,
      "Ġshould": 2459,
      "ĊĠĠĠĠĠĠĠĠĠĠĠĠĠĠĠĠĠĠĠĠĠĠĠĠĠĠĠĠĠĠĠĠĠĠĠĠĠĠĠĠĠĠĠĠĠĠ": 2460,
      "GS": 2461,
      "ish": 2462,
      "PRO": 2463,
      "non": 2464,
      "Option": 2465,
      "Admin": 2466,
      "ĠĠĠĠĠĠĠĠĠĠĠĠĠĠĠĠĠĠĠĠĠĠĠĠĠĠĠĠĠĠĠĠĠĠĠĠĠĠĠĠĠĠĠĠĠĠĠĠ": 2467,
      "safe": 2468,
      "Ġ16": 2469,
      "tex": 2470,
      "indent": 2471,
      "mb": 2472,
      "Ġemail": 2473,
      "pol": 2474,
      "comple": 2475,
      "\".": 2476,
      "Sp": 2477,
      "08": 2478,
      "pattern": 2479,
      "Window": 2480,
      "05": 2481,
      "Loc": 2482,
      "example": 2483,
      "Ġcommand": 2484,
      "feed": 2485,
      "Ġframe": 2486,
      "Ġback": 2487,
      "place": 2488,
      "Ġ\\": 2489,
      "Ġrequired": 2490,
      "plot": 2491,
      "factory": 2492,
      "rapper": 2493,
      "Mode": 2494,
      "TA": 2495,
      "scale": 2496,
      "Attribute": 2497,
      ">\\": 2498,
      "DB": 2499,
      "]),": 2500,
      "atri": 2501,
      "istory": 2502,
      "dd": 2503,
      "tifier": 2504,
      "volume": 2505,
      "ories": 2506,
      "stall": 2507,
      "null": 2508,
      "pay": 2509,
      "ason": 2510,
      "tach": 2511,
      "Ġstyle": 2512,
      "ĊĠĠĠĠĠĠĠĠĠĠĠĠĠĠĠĠĠĠĠĠĠĠĠĠĠĠĠĠĠĠĠĠĠĠĠĠĠĠĠĠĠ": 2513,
      "Ġne": 2514,
      "Output": 2515,
      "Ġpack": 2516,
      "Ġerr": 2517,
      "results": 2518,
      "06": 2519,
      "div": 2520,
      "tains": 2521,
      "Ġurllib": 2522,
      "Server": 2523,
      "Ġ100": 2524,
      "etree": 2525,
      "tries": 2526,
      "(%": 2527,
      "17": 2528,
      "Ġfind": 2529,
      "Ġhandle": 2530,
      "ĠDi": 2531,
      "ense": 2532,
      "OG": 2533,
      "ach": 2534,
      "ĠSe": 2535,
      "Child": 2536,
      "release": 2537,
      "random": 2538,
      "Lay": 2539,
      "Ġim": 2540,
      "Begin": 2541,
      "licy": 2542,
      "ĊĊĠĠĠĠĠĠĠĠĠĠĠĠĠĠĠĠĠĠĠĠĠĠĠĠ": 2543,
      "Result": 2544,
      "__)": 2545,
      "HE": 2546,
      "agent": 2547,
      "FORM": 2548,
      "Ġencoding": 2549,
      "As": 2550,
      "rer": 2551,
      "ured": 2552,
      "Ġchange": 2553,
      "ORT": 2554,
      "atrix": 2555,
      "flags": 2556,
      "gl": 2557,
      "ĠMe": 2558,
      "only": 2559,
      "VE": 2560,
      "('\\": 2561,
      "ĠText": 2562,
      "orld": 2563,
      "iltin": 2564,
      "argv": 2565,
      "sm": 2566,
      "+=": 2567,
      "bound": 2568,
      "classmethod": 2569,
      "repo": 2570,
      "points": 2571,
      "board": 2572,
      "tw": 2573,
      "les": 2574,
      "Ġ\".": 2575,
      "']:": 2576,
      "Ġtwisted": 2577,
      "Edit": 2578,
      "Tree": 2579,
      "Ġinfo": 2580,
      "SER": 2581,
      "lt": 2582,
      "Ġmock": 2583,
      "pa": 2584,
      "vas": 2585,
      "exc": 2586,
      "fn": 2587,
      "ĊĠĠĠĠĠĠĠĠĠĠĠĠĠĠĠĠĠĠĠĠĠĠĠĠĠĠĠĠĠĠĠĠĠĠĠĠĠĠĠĠĠĠĠĠĠĠĠĠĠĠĠ": 2588,
      "ported": 2589,
      "ases": 2590,
      "FO": 2591,
      "umerate": 2592,
      "202": 2593,
      "Ġpyg": 2594,
      "]*": 2595,
      "exer": 2596,
      "unter": 2597,
      "ĠUInt": 2598,
      "ich": 2599,
      "Ġmode": 2600,
      "Ġnetwork": 2601,
      "Ġlink": 2602,
      "ĠEx": 2603,
      "(\"/": 2604,
      "issing": 2605,
      "zer": 2606,
      "ged": 2607,
      "rag": 2608,
      "(\"%": 2609,
      ")'": 2610,
      "iv": 2611,
      "Unless": 2612,
      "lip": 2613,
      "ollow": 2614,
      "changed": 2615,
      "Factory": 2616,
      "ueue": 2617,
      "extra": 2618,
      "ATI": 2619,
      "total": 2620,
      "Des": 2621,
      "pth": 2622,
      "Ġcopy": 2623,
      "Ġfiles": 2624,
      "Ġfilter": 2625,
      "Ġwindow": 2626,
      "commit": 2627,
      "language": 2628,
      "Change": 2629,
      "ZE": 2630,
      "decl": 2631,
      "BO": 2632,
      "()[": 2633,
      "ĊĠĠĠĠĠĠĠĠĠĠĠĠĠĠĠĠĠĠĠĠĠĠĠĠĠĠĠĠĠĠĠĠĠĠĠĠĠĠĠĠĠĠĠĠĠĠĠĠĠĠĠĠĠĠĠ": 2634,
      "ĠĠĠĠĠĠĠĠĠĠĠĠĠĠĠĠĠĠĠĠĠĠĠ": 2635,
      "Ġ((": 2636,
      "ĠUn": 2637,
      "layout": 2638,
      "gen": 2639,
      "Ġhash": 2640,
      "package": 2641,
      "rop": 2642,
      "Ġunittest": 2643,
      "aster": 2644,
      "protocol": 2645,
      "Cur": 2646,
      "mportError": 2647,
      "Ġsu": 2648,
      "CP": 2649,
      "ceived": 2650,
      "Ġtt": 2651,
      "cmd": 2652,
      "IL": 2653,
      "unittest": 2654,
      "utable": 2655,
      "latform": 2656,
      "year": 2657,
      "ĊĠĠĠĠĠĠĠĠĠĠĠĠĠĠĠĠĠĠĠĠĠĠĠĠĠĠĠĠĠĠĠĠĠĠĠĠĠĠĠĠĠĠĠĠ": 2658,
      "Ġload": 2659,
      "--------": 2660,
      "('%": 2661,
      "vide": 2662,
      "allow": 2663,
      "Ġpk": 2664,
      "ĊĠĠĠĠĠĠĠĠĠĠĠĠĠĠĠĠĠĠĠĠĠĠĠĠĠĠĠĠĠĠĠĠĠĠĠĠĠĠĠĠĠĠĠĠĠĠĠĠĠĠĠĠĠĠĠĠĠĠĠĠĠ": 2665,
      "Ġfinally": 2666,
      "zip": 2667,
      "Frame": 2668,
      "rs": 2669,
      "Ġpub": 2670,
      "ĠĠĠĠĠĠĠĠĠĠĠĠĠĠĠĠĠĠĠĠĠ": 2671,
      "ymb": 2672,
      "using": 2673,
      "const": 2674,
      "Ġcho": 2675,
      "ĠBase": 2676,
      "Validation": 2677,
      "CE": 2678,
      "related": 2679,
      "cent": 2680,
      "tuple": 2681,
      "so": 2682,
      "ple": 2683,
      "Ġref": 2684,
      "rows": 2685,
      "draw": 2686,
      "Lexer": 2687,
      "Ġhtml": 2688,
      "::": 2689,
      "radi": 2690,
      "ĊĊĊĠ": 2691,
      "\",\"": 2692,
      "Found": 2693,
      "ĠTypeError": 2694,
      "Label": 2695,
      "aly": 2696,
      "=(": 2697,
      "erry": 2698,
      "mpty": 2699,
      "ĊĠĠĠĠĠĠĠĠĠĠĠĠĠĠĠĠĠĠĠĠĠĠĠĠĠĠĠĠĠĠĠĠĠĠĠĠĠĠĠĠĠĠĠĠĠĠĠĠĠĠ": 2700,
      "Array": 2701,
      "Ġresp": 2702,
      "Source": 2703,
      "Ġpoint": 2704,
      "36": 2705,
      "sets": 2706,
      "ection": 2707,
      "Ġ,": 2708,
      "Trans": 2709,
      "category": 2710,
      "(__": 2711,
      "Ġ15": 2712,
      "Reg": 2713,
      "(**": 2714,
      "ĠEn": 2715,
      "Ġar": 2716,
      "aml": 2717,
      "IP": 2718,
      "ĊĠĠĠĠĠĠĠĠĠĠĠĠĠĠĠĠĠĠĠĠĠĠĠĠĠĠĠĠĠĠĠĠĠĠĠĠĠĠĠĠĠĠĠĠĠĠĠĠĠĠĠĠĠĠĠĠĠĠĠ": 2719,
      "au": 2720,
      "columns": 2721,
      "Ġclo": 2722,
      "iff": 2723,
      "Ġusername": 2724,
      "ĊĠĠĠĠĠĠĠĠĠĠĠĠĠĠĠĠĠĠĠĠĠĠĠĠĠĠĠĠĠĠĠĠĠĠĠĠĠĠĠĠĠĠĠĠĠĠĠĠĠĠĠĠĠĠĠĠĠĠĠĠĠĠ": 2725,
      "oriz": 2726,
      "()))": 2727,
      "Ġav": 2728,
      "common": 2729,
      "ning": 2730,
      "Inter": 2731,
      "Ġenumerate": 2732,
      "ĠError": 2733,
      "Ġproduct": 2734,
      "####": 2735,
      ")',": 2736,
      "Invalid": 2737,
      "empty": 2738,
      "src": 2739,
      "ĊĠĠĠĠĠĠĠĠĠĠĠĠĠĠĠĠĠĠĠĠĠĠĠĠĠĠĠĠĠĠĠĠĠĠĠĠĠĠĠĠĠĠĠĠĠĠĠĠĠĠĠĠ": 2740,
      "redirect": 2741,
      "driver": 2742,
      "Idx": 2743,
      "failUnless": 2744,
      "Ġdist": 2745,
      "Ġti": 2746,
      "resol": 2747,
      "oreign": 2748,
      "Ġtags": 2749,
      "Check": 2750,
      "ORD": 2751,
      "invalid": 2752,
      "Ġglobal": 2753,
      "ĠQtCore": 2754,
      "desc": 2755,
      "ĠImportError": 2756,
      "FILE": 2757,
      "Ġargument": 2758,
      "seconds": 2759,
      "true": 2760,
      "ĠKeyError": 2761,
      "blank": 2762,
      "Ġ-=": 2763,
      "ĊĠĠĠĠĠĠĠĠĠĠĠĠĠĠĠĠĠĠĠĠĠĠĠĠĠĠĠĠĠĠĠĠĠĠĠĠĠĠĠĠĠĠĠĠĠĠĠĠĠĠĠĠĠĠĠĠĠĠĠĠ": 2764,
      "oper": 2765,
      "binary": 2766,
      "enu": 2767,
      "('<": 2768,
      "uble": 2769,
      "www": 2770,
      "dle": 2771,
      "detail": 2772,
      "ift": 2773,
      "fixed": 2774,
      "MAX": 2775,
      "With": 2776,
      "Ġ\"\\": 2777,
      "PAT": 2778,
      "patch": 2779,
      "https": 2780,
      "Ġitems": 2781,
      "month": 2782,
      "ground": 2783,
      "This": 2784,
      "ward": 2785,
      "Ġdelete": 2786,
      "words": 2787,
      "ĊĠĠĠĠĠĠĠĠĠĠĠĠĠĠĠĠĠĠĠĠĠĠĠĠĠĠĠĠĠĠĠĠĠĠĠĠĠĠĠĠĠĠĠĠĠĠĠĠĠĠĠĠĠĠĠĠĠĠ": 2788,
      "Al": 2789,
      "lookup": 2790,
      "Ġblank": 2791,
      "iteritems": 2792,
      "weight": 2793,
      "media": 2794,
      "iddle": 2795,
      "Filter": 2796,
      "report": 2797,
      "PA": 2798,
      "ending": 2799,
      "choices": 2800,
      "Version": 2801,
      "=_": 2802,
      "curity": 2803,
      "iki": 2804,
      "wer": 2805,
      "hex": 2806,
      "Ġconn": 2807,
      "ĠCol": 2808,
      ")])": 2809,
      "VAL": 2810,
      "vider": 2811,
      "78": 2812,
      "features": 2813,
      "mi": 2814,
      "Logger": 2815,
      "Ġtree": 2816,
      "INT": 2817,
      "Ġfeast": 2818,
      "adding": 2819,
      "errypy": 2820,
      "Is": 2821,
      "\":\"": 2822,
      "dev": 2823,
      "updated": 2824,
      "ĊĠĠĠĠĠĠĠĠĠĠĠĠĊĠĠĠĠĠĠĠĠĠĠĠ": 2825,
      "CK": 2826,
      "(-": 2827,
      "Ġreverse": 2828,
      "Ġcmd": 2829,
      "click": 2830,
      "DEFAULT": 2831,
      "shop": 2832,
      "ride": 2833,
      "ĊĠĠĠĠĠĠĠĠĠĠĠĠĠĠĠĠĠĠĠĠĠĠĠĠĠĠĠĠĠĠĠĠĠĠĠĠĠĠĠĠĠĠĠĠĠĠĠĠĠĠĠĠĠ": 2834,
      "tt": 2835,
      "vision": 2836,
      "ustome": 2837,
      "EST": 2838,
      "nector": 2839,
      "serializ": 2840,
      "images": 2841,
      "Ġsearch": 2842,
      "cate": 2843,
      "Dis": 2844,
      "js": 2845,
      "asic": 2846,
      "tract": 2847,
      "distance": 2848,
      "Ġ\"_": 2849,
      "long": 2850,
      "Ġopts": 2851,
      "An": 2852,
      "sis": 2853,
      "VAR": 2854,
      "xb": 2855,
      "tify": 2856,
      "ĠHT": 2857,
      "real": 2858,
      "Ġtotal": 2859,
      "sw": 2860,
      "Ġcal": 2861,
      "Ġab": 2862,
      "Redirect": 2863,
      "NE": 2864,
      "xf": 2865,
      "case": 2866,
      "\").": 2867,
      "END": 2868,
      "users": 2869,
      "Ġzip": 2870,
      "erge": 2871,
      "dist": 2872,
      "Ġexc": 2873,
      "ancel": 2874,
      "stdout": 2875,
      "Ġhave": 2876,
      "ient": 2877,
      "Ġtimeout": 2878,
      "imp": 2879,
      "Ġyou": 2880,
      "Enabled": 2881,
      "signature": 2882,
      "Ġresource": 2883,
      "transform": 2884,
      "oreignKey": 2885,
      "storage": 2886,
      "SIZE": 2887,
      "Ġjob": 2888,
      "vl": 2889,
      "Ġvisit": 2890,
      "uch": 2891,
      "mer": 2892,
      "heet": 2893,
      "Multi": 2894,
      ");": 2895,
      "gettext": 2896,
      "Pack": 2897,
      "uff": 2898,
      "reverse": 2899,
      "derr": 2900,
      "PI": 2901,
      "Ġsm": 2902,
      "INE": 2903,
      "UTH": 2904,
      "center": 2905,
      "Ġclear": 2906,
      "lation": 2907,
      "Ġexp": 2908,
      "cheme": 2909,
      "TEST": 2910,
      "ful": 2911,
      "STAT": 2912,
      "conn": 2913,
      "Point": 2914,
      "Ġdir": 2915,
      "Command": 2916,
      "erred": 2917,
      "Ġnull": 2918,
      "parameters": 2919,
      "Ġdis": 2920,
      "arning": 2921,
      "grid": 2922,
      "chunk": 2923,
      "proxy": 2924,
      "equal": 2925,
      "collection": 2926,
      "Ġbuf": 2927,
      "XT": 2928,
      "iginal": 2929,
      "Run": 2930,
      "{%": 2931,
      "rectory": 2932,
      "rule": 2933,
      "pha": 2934,
      "ACE": 2935,
      "cleaned": 2936,
      "Ġchunk": 2937,
      "rest": 2938,
      "Ġservice": 2939,
      "except": 2940,
      "Address": 2941,
      "Process": 2942,
      "42": 2943,
      "Ġ'-": 2944,
      "Ġsave": 2945,
      "sample": 2946,
      "Ġaddress": 2947,
      "ĠĠĠĊ": 2948,
      "IntegerField": 2949,
      "ness": 2950,
      "umpy": 2951,
      "inf": 2952,
      "ĠRequest": 2953,
      "Ġutils": 2954,
      "PORT": 2955,
      "mapping": 2956,
      "}\")": 2957,
      "track": 2958,
      "lazy": 2959,
      "Ġnova": 2960,
      "Ġbuild": 2961,
      "]['": 2962,
      "Ġposition": 2963,
      "XML": 2964,
      "Ġ\",": 2965,
      "idden": 2966,
      "Ġclean": 2967,
      "Down": 2968,
      "Ġright": 2969,
      "ABLE": 2970,
      "35": 2971,
      "Ġctypes": 2972,
      "loads": 2973,
      "Layout": 2974,
      "\"{": 2975,
      "ĠAttribute": 2976,
      "ATION": 2977,
      "Ġselect": 2978,
      "support": 2979,
      "mem": 2980,
      "Ġmeta": 2981,
      "09": 2982,
      "ERR": 2983,
      "\"}": 2984,
      "Ġslug": 2985,
      "Ġstep": 2986,
      "attribute": 2987,
      "'s": 2988,
      "ĠLOG": 2989,
      "ĊĠĠĠĠĠĠĠĠĠĠĠĠĠĠĠĠĠĠĠĠĠĠĠĠĠĠĠĠĠĠĠĠĠĠĠĠĠĠĠĠĠĠĠĠĠĠĠĠĠĠĠĠĠĠ": 2990,
      "Ġschema": 2991,
      "ĠsetUp": 2992,
      "tmp": 2993,
      "vious": 2994,
      "img": 2995,
      "77": 2996,
      "absolute": 2997,
      "directory": 2998,
      "system": 2999,
      "MS": 3000,
      "score": 3001,
      "ND": 3002,
      "wrap": 3003,
      "ĠIN": 3004,
      "visit": 3005,
      "ority": 3006,
      "AND": 3007,
      "icon": 3008,
      "tore": 3009,
      "Ġqs": 3010,
      "Ġlevel": 3011,
      "ĠĠĠĠĠĠĠĠĠĠ": 3012,
      "Ġenviron": 3013,
      "Queue": 3014,
      "('-": 3015,
      "manage": 3016,
      "simple": 3017,
      "\"'": 3018,
      "Ġverbose": 3019,
      "classes": 3020,
      "Ġidx": 3021,
      "win": 3022,
      "Ġraw": 3023,
      "ĠBo": 3024,
      "Back": 3025,
      "txt": 3026,
      "scope": 3027,
      "inary": 3028,
      "Ġbytes": 3029,
      "PATH": 3030,
      "upper": 3031,
      "Mix": 3032,
      "slice": 3033,
      "PAR": 3034,
      "Ġfont": 3035,
      "sgi": 3036,
      "Struct": 3037,
      "contents": 3038,
      "SET": 3039,
      "exit": 3040,
      "ready": 3041,
      "Lookup": 3042,
      "tities": 3043,
      "ĠTh": 3044,
      "Doc": 3045,
      "kip": 3046,
      "Ġ'')": 3047,
      "cookie": 3048,
      "imum": 3049,
      "_.": 3050,
      "();": 3051,
      "defin": 3052,
      "roll": 3053,
      "peed": 3054,
      "strs": 3055,
      "Header": 3056,
      "Function": 3057,
      "batch": 3058,
      "uce": 3059,
      "Ġ\"/": 3060,
      "Ġ`": 3061,
      "Record": 3062,
      "Ġarray": 3063,
      "Ġ20": 3064,
      "cc": 3065,
      "NUM": 3066,
      "png": 3067,
      "255": 3068,
      "Ġapi": 3069,
      "II": 3070,
      "splay": 3071,
      "ession": 3072,
      "acti": 3073,
      "Ġleft": 3074,
      "seq": 3075,
      "fake": 3076,
      "include": 3077,
      "Ġinclude": 3078,
      "span": 3079,
      "Ġwork": 3080,
      "\"},": 3081,
      "container": 3082,
      "parts": 3083,
      "PRE": 3084,
      "hub": 3085,
      "staticmethod": 3086,
      "pool": 3087,
      "ĠCh": 3088,
      "gress": 3089,
      "connector": 3090,
      "ĠGL": 3091,
      "player": 3092,
      "LOG": 3093,
      "validate": 3094,
      "\"\\": 3095,
      "wd": 3096,
      "Ġ[])": 3097,
      "eb": 3098,
      "owner": 3099,
      "Ġ'',": 3100,
      "backend": 3101,
      "ose": 3102,
      "cii": 3103,
      "Tests": 3104,
      "ctype": 3105,
      "UB": 3106,
      "ustomer": 3107,
      "Menu": 3108,
      "short": 3109,
      "AS": 3110,
      "dumps": 3111,
      "dirname": 3112,
      "xx": 3113,
      "({'": 3114,
      "(['": 3115,
      "88": 3116,
      "loop": 3117,
      "play": 3118,
      "sn": 3119,
      "Ġcons": 3120,
      "ĠPer": 3121,
      "Callback": 3122,
      "zz": 3123,
      "itch": 3124,
      "Ġmon": 3125,
      "Ġ})": 3126,
      "ition": 3127,
      "Ġnorm": 3128,
      "Ġ'#": 3129,
      "Ġdomain": 3130,
      "OK": 3131,
      "QL": 3132,
      "Ġ<<": 3133,
      "Ġnodes": 3134,
      "Start": 3135,
      "Ġcomment": 3136,
      "dat": 3137,
      "Ġpay": 3138,
      "Length": 3139,
      "Ġsum": 3140,
      "Ġsetattr": 3141,
      "ASE": 3142,
      "ive": 3143,
      "rot": 3144,
      "Ġmetadata": 3145,
      "mapper": 3146,
      "tered": 3147,
      "Ġctx": 3148,
      "Ġdt": 3149,
      "note": 3150,
      "VERSION": 3151,
      "second": 3152,
      "Ref": 3153,
      "ymbol": 3154,
      "Method": 3155,
      "leep": 3156,
      "Instance": 3157,
      "ATA": 3158,
      "ĠĠĠĠĠĠĠĠĠĠĠĠ": 3159,
      "sive": 3160,
      "ular": 3161,
      ",'": 3162,
      "Ġmath": 3163,
      "catalog": 3164,
      "article": 3165,
      "Ġgoogle": 3166,
      "Ge": 3167,
      "reset": 3168,
      "Read": 3169,
      "actions": 3170,
      "initial": 3171,
      "car": 3172,
      "Ġcreated": 3173,
      "ĠField": 3174,
      "known": 3175,
      "plugin": 3176,
      "Ġoauth": 3177,
      "filters": 3178,
      "ForeignKey": 3179,
      "ĊĠĠĠĠĠĠĠĠĠĠĠĠĠĠĠĠĠĠĠĊĊĠĠĠĠĠĠĠ": 3180,
      "Ġ_('": 3181,
      "23": 3182,
      "rl": 3183,
      "pid": 3184,
      "ĠY": 3185,
      "={'": 3186,
      "26": 3187,
      "']['": 3188,
      "TIME": 3189,
      "gate": 3190,
      "Ġparameters": 3191,
      "Ġtimestamp": 3192,
      "sync": 3193,
      "Ġsimple": 3194,
      "pression": 3195,
      "29": 3196,
      "()),": 3197,
      "side": 3198,
      "Ġoper": 3199,
      "ROM": 3200,
      "Ġinitialized": 3201,
      "ene": 3202,
      "}\"": 3203,
      "Ġnow": 3204,
      "ĠĠĠĠĠĠĠĠĠĠĠĠĠĠĠĠĠĠĠĠĠĠĠĠĠĠĠĠĠĠĠĠĠĠĠĠĠĠĠĠĠĠĠĠĠĠĠĠĠĠĠĠĠĠĠĠ": 3205,
      "qs": 3206,
      "Ġremove": 3207,
      "aded": 3208,
      "_))": 3209,
      "tition": 3210,
      "Ġcherrypy": 3211,
      "titem": 3212,
      "unct": 3213,
      "Ġstruct": 3214,
      "Ġamo": 3215,
      "ĠAttributeError": 3216,
      "========": 3217,
      "gb": 3218,
      "socket": 3219,
      "ĊĠĠĠĠĠĠĠĠĠĠĠĠĠĠĠĠĠĠĠĠĠĠĠĠĠĠĠĠĠĠĠĠĠĠĠĠĠĠĠĠĠĠĠĠĠĠĠĠĠ": 3220,
      "Ġauto": 3221,
      "fixture": 3222,
      "Ġ[(": 3223,
      "Ġedit": 3224,
      "Ġ\"<": 3225,
      "Ġ--": 3226,
      "card": 3227,
      "sched": 3228,
      "ĠĠĠĠĠĠĠĠĠĠĠĠĠĠĠĠĠĠĠ": 3229,
      "compute": 3230,
      "ĠĠĠĠĠĠĠĠĠĠĠĠĠĠ": 3231,
      "()]": 3232,
      "screen": 3233,
      "ĠFe": 3234,
      "MENT": 3235,
      "Ġfl": 3236,
      "anel": 3237,
      "way": 3238,
      "fill": 3239,
      "public": 3240,
      "axis": 3241,
      "OS": 3242,
      "Ġsha": 3243,
      "events": 3244,
      "teSize": 3245,
      "Ġlimit": 3246,
      "ello": 3247,
      "Ġsocket": 3248,
      "Ġsetup": 3249,
      "ste": 3250,
      "Ġ\"__": 3251,
      "Ġtmp": 3252,
      "bit": 3253,
      "gment": 3254,
      "ĠFile": 3255,
      "__.__": 3256,
      "ĊĊĠĠĠĠĠ": 3257,
      "Exist": 3258,
      ".%": 3259,
      "Ġredirect": 3260,
      "Ġtypes": 3261,
      "sequence": 3262,
      "ĠImage": 3263,
      "modules": 3264,
      "Default": 3265,
      "'},": 3266,
      "ĠMeta": 3267,
      "hoto": 3268,
      "27": 3269,
      "dt": 3270,
      "Ġflags": 3271,
      "Ġop": 3272,
      "Types": 3273,
      "Ġftype": 3274,
      "ascii": 3275,
      "Ġ1000": 3276,
      "TEXT": 3277,
      "ln": 3278,
      "ystem": 3279,
      "stract": 3280,
      "201": 3281,
      "60": 3282,
      "Width": 3283,
      "LAGS": 3284,
      "success": 3285,
      "Match": 3286,
      "Ġover": 3287,
      "denti": 3288,
      "Ġcollection": 3289,
      "dio": 3290,
      ")\\": 3291,
      "ĠDE": 3292,
      "Ġcb": 3293,
      "Ġqu": 3294,
      "tokens": 3295,
      "ĠStringIO": 3296,
      "Ġforce": 3297,
      "authentic": 3298,
      "Ġfull": 3299,
      "izer": 3300,
      "Bytes": 3301,
      "very": 3302,
      "ram": 3303,
      "menu": 3304,
      "tz": 3305,
      "Ġgenerate": 3306,
      "latest": 3307,
      "LECT": 3308,
      "Spec": 3309,
      "Store": 3310,
      ">\"": 3311,
      "states": 3312,
      "Ġdoes": 3313,
      "dentials": 3314,
      "void": 3315,
      "reams": 3316,
      "Template": 3317,
      "derer": 3318,
      "xc": 3319,
      "serv": 3320,
      "OUT": 3321,
      "vers": 3322,
      "Does": 3323,
      "ategories": 3324,
      "All": 3325,
      "40": 3326,
      "HO": 3327,
      "lis": 3328,
      "apter": 3329,
      "bucket": 3330,
      "eval": 3331,
      "ailure": 3332,
      "Mixin": 3333,
      "sv": 3334,
      "Ġweb": 3335,
      "pla": 3336,
      "Ġone": 3337,
      "ValidationError": 3338,
      "tab": 3339,
      "mac": 3340,
      "Ġkeys": 3341,
      "ado": 3342,
      "aceback": 3343,
      "[^": 3344,
      "modified": 3345,
      "COL": 3346,
      "Ġmy": 3347,
      "SO": 3348,
      "cer": 3349,
      "rift": 3350,
      "Ġstop": 3351,
      "sitory": 3352,
      "ia": 3353,
      "NotFound": 3354,
      "umb": 3355,
      "Ġelem": 3356,
      "gnore": 3357,
      "leted": 3358,
      "(\"\\": 3359,
      "NotExist": 3360,
      "Ġutil": 3361,
      "ĠRE": 3362,
      "atom": 3363,
      "Ġnamespace": 3364,
      "Ġsorted": 3365,
      "transport": 3366,
      "Gener": 3367,
      "XX": 3368,
      "writer": 3369,
      "cu": 3370,
      "ates": 3371,
      "SIG": 3372,
      "ank": 3373,
      "term": 3374,
      "Ġstore": 3375,
      "az": 3376,
      "blob": 3377,
      "Ġ%}": 3378,
      "crement": 3379,
      ")(": 3380,
      "her": 3381,
      "AGE": 3382,
      "Ġattributes": 3383,
      "DoesNotExist": 3384,
      "Ġkw": 3385,
      "SON": 3386,
      "Ġsrc": 3387,
      "ENT": 3388,
      "Nodes": 3389,
      "\"%": 3390,
      "=\"%": 3391,
      "sec": 3392,
      "ĊĠĠĠĠĠĠĠĠĠĠĠĠĊĠĠĠĠĠĠĠ": 3393,
      "consumer": 3394,
      "ĊĠĠĠĠĠĠ": 3395,
      "__.": 3396,
      "Boolean": 3397,
      "Ġmime": 3398,
      "ternal": 3399,
      "Build": 3400,
      "sheet": 3401,
      ">')": 3402,
      "termin": 3403,
      "tack": 3404,
      "tical": 3405,
      "wx": 3406,
      "acter": 3407,
      "]):": 3408,
      "lex": 3409,
      "Ġyour": 3410,
      "eq": 3411,
      "mk": 3412,
      "missions": 3413,
      "Ġauthor": 3414,
      "Sign": 3415,
      "ater": 3416,
      "Ġcategory": 3417,
      "sl": 3418,
      "Open": 3419,
      "Ġty": 3420,
      "primary": 3421,
      "Ġany": 3422,
      "HTML": 3423,
      "Ġmulti": 3424,
      "ignore": 3425,
      "Ġpa": 3426,
      "Ġ</": 3427,
      "coord": 3428,
      "PS": 3429,
      "ves": 3430,
      "Ġreport": 3431,
      "ĠConfig": 3432,
      "cond": 3433,
      "folder": 3434,
      "reader": 3435,
      "tick": 3436,
      "ptr": 3437,
      "orn": 3438,
      "__':": 3439,
      "ĠNo": 3440,
      "warning": 3441,
      "59": 3442,
      "Ġshow": 3443,
      "Ġwill": 3444,
      "interval": 3445,
      "Ġparts": 3446,
      "rive": 3447,
      "Ġso": 3448,
      "INFO": 3449,
      "GI": 3450,
      "Create": 3451,
      "ĠMapping": 3452,
      "New": 3453,
      "aa": 3454,
      "flush": 3455,
      "AUTH": 3456,
      "Ġprofile": 3457,
      "Ġinitial": 3458,
      "Ġlogin": 3459,
      "vity": 3460,
      "ometry": 3461,
      "UE": 3462,
      "VI": 3463,
      "ĠGener": 3464,
      "Ġrelated": 3465,
      "Ġsend": 3466,
      "afe": 3467,
      "ric": 3468,
      "digest": 3469,
      "price": 3470,
      ")/": 3471,
      "href": 3472,
      "nb": 3473,
      "Feature": 3474,
      "press": 3475,
      "ĊĊĠĠĠĠĠĠĠĠĠĠĠĠĠĠĠĠ": 3476,
      "loader": 3477,
      "getLogger": 3478,
      "ALL": 3479,
      "Ġlookup": 3480,
      "ingle": 3481,
      "Ġ(%": 3482,
      "ĠZ": 3483,
      "unit": 3484,
      "DateTime": 3485,
      "bad": 3486,
      "elem": 3487,
      "ĠĊĠĠĠĠĠĠĠĠĠĠĠĠĠĠĠ": 3488,
      "Ġjoin": 3489,
      "CRE": 3490,
      "endswith": 3491,
      "cast": 3492,
      "Ġwarn": 3493,
      "dot": 3494,
      "Body": 3495,
      "'%": 3496,
      "Ġup": 3497,
      "route": 3498,
      "sources": 3499,
      "FT": 3500,
      "helper": 3501,
      "uler": 3502,
      "edges": 3503,
      "[:-": 3504,
      "66": 3505,
      "fd": 3506,
      "Ġprop": 3507,
      "proc": 3508,
      "Ġgtk": 3509,
      "setEnabled": 3510,
      "[]": 3511,
      "alk": 3512,
      "Ġdtype": 3513,
      "ffix": 3514,
      "Ġrequests": 3515,
      "css": 3516,
      "ĠAdd": 3517,
      "And": 3518,
      "Ġuri": 3519,
      "Ġcontents": 3520,
      "07": 3521,
      "prop": 3522,
      "uture": 3523,
      "Of": 3524,
      "ĊĊĠĠĠĠĠĠĠĠĠĠĠĠĠĠĠĠĠĠĠĠĠĠĠĠĠĠĠĠĠĠĠĠĠĠĠĠĠĠĠĠĠĠĠĠĠĠĠĠĠĠĠĠĠĠĠĠĠĠĠĠĠĠĠĠĠĠĠĠĠĠĠĠĠĠĠĠĠĠĠĠ": 3525,
      "Ġonly": 3526,
      "Cache": 3527,
      "sure": 3528,
      "Merge": 3529,
      "Ġfn": 3530,
      "ĠĠĠĠĠĠĠĠĠĠĠĠĠĠĠĠĠĠĠĠĠĠĠĠĠĠĠĠĠĠĠĠĠĠĠĠĠĠĠĠĠĠĠĠĠĠĠĠĠĠĠĠĠĠĠĠĠĠĠĠĠĠĠĠ": 3531,
      "cached": 3532,
      ":\"": 3533,
      "OT": 3534,
      "regex": 3535,
      "Ġ}}": 3536,
      "Ġfeed": 3537,
      "_\"": 3538,
      "DIR": 3539,
      "RL": 3540,
      "cut": 3541,
      "ified": 3542,
      "Ġqueue": 3543,
      "custom": 3544,
      "Ġpattern": 3545,
      "Column": 3546,
      "selection": 3547,
      "Ġ'{": 3548,
      "'][": 3549,
      "Ġtools": 3550,
      "ĊĠĠĠĠĠĠĠĠĠĠĠĠĠĠĠĠĠĠĠĠĠĠĠĊĠĠĠĠĠĠĠĠĠĠĠĠĠĠĠĠĠĠĠĠĠĠĠĊĠĠĠĠĠĠĠĠĠĠĠĠĠĠĠĠĠĠĠĠĠĠĠĊĠĠĠĠĠĠĠĠĠĠĠĠĠĠĠĠĠĠĠĠĠĠĠ": 3551,
      "ateri": 3552,
      "MIN": 3553,
      "rand": 3554,
      "iler": 3555,
      "Ġfid": 3556,
      "Ġselected": 3557,
      "ĠAr": 3558,
      "Module": 3559,
      "Ġexec": 3560,
      "iddleware": 3561,
      "|\\": 3562,
      "'}),": 3563,
      "global": 3564,
      "Ġaddon": 3565,
      "Ġcp": 3566,
      "Meta": 3567,
      "abc": 3568,
      "Post": 3569,
      "metr": 3570,
      "Task": 3571,
      "Arg": 3572,
      "uation": 3573,
      "Ġmember": 3574,
      "LETE": 3575,
      "Ġused": 3576,
      "Max": 3577,
      "ude": 3578,
      "bottom": 3579,
      "sleep": 3580,
      "Ġnames": 3581,
      "ĠPar": 3582,
      "shot": 3583,
      "contact": 3584,
      "opt": 3585,
      "history": 3586,
      "Font": 3587,
      "ftype": 3588,
      "ux": 3589,
      "ynt": 3590,
      "ĠData": 3591,
      "cimal": 3592,
      "Mock": 3593,
      "bution": 3594,
      "asy": 3595,
      "pair": 3596,
      "/',": 3597,
      "verbose": 3598,
      "light": 3599,
      "days": 3600,
      "ural": 3601,
      "Ġwas": 3602,
      "platform": 3603,
      "component": 3604,
      "ĠSet": 3605,
      "'<": 3606,
      "after": 3607,
      "Ġadmin": 3608,
      "ĠComment": 3609,
      "Ġcap": 3610,
      "Ġ65": 3611,
      "39": 3612,
      "ins": 3613,
      "tyle": 3614,
      "sitive": 3615,
      "dirs": 3616,
      "firm": 3617,
      "MM": 3618,
      "Block": 3619,
      "1000": 3620,
      "ĠFROM": 3621,
      "ĠĠĠĠĠĊĠĠĠ": 3622,
      "dispatch": 3623,
      "STATUS": 3624,
      "'})": 3625,
      "kind": 3626,
      "bits": 3627,
      "help": 3628,
      "lang": 3629,
      "ĠDict": 3630,
      "yntax": 3631,
      "Ġstri": 3632,
      "/')": 3633,
      "ability": 3634,
      "Resource": 3635,
      "Ġmod": 3636,
      "vars": 3637,
      "gt": 3638,
      "control": 3639,
      "fc": 3640,
      "|'": 3641,
      "sity": 3642,
      "verage": 3643,
      "google": 3644,
      "bool": 3645,
      "difi": 3646,
      "Ġusing": 3647,
      "00000000": 3648,
      "records": 3649,
      "appengine": 3650,
      "expi": 3651,
      "unique": 3652,
      "formation": 3653,
      "REQU": 3654,
      "enabled": 3655,
      "Ġsc": 3656,
      "Ġextension": 3657,
      "')),": 3658,
      "ling": 3659,
      "ply": 3660,
      "dim": 3661,
      "Ġchoices": 3662,
      "ĠElement": 3663,
      "Ġloc": 3664,
      ">',": 3665,
      "none": 3666,
      "stderr": 3667,
      "git": 3668,
      "mpt": 3669,
      "ERROR": 3670,
      "stat": 3671,
      "med": 3672,
      "31": 3673,
      "ticle": 3674,
      "handlers": 3675,
      "Ġescape": 3676,
      "ĊĠĠĠĠĠĠĠĠĠĠĠĠĠĠĠĠĠĠĠĠĠĠĠĠĠĠĠĠĠĠĠĠĠĠĠĠĠĠĠĠĠĠĠĠĠĠĠĠĠĠĠĠĠĠĠĠĠ": 3677,
      "ecimal": 3678,
      "ACK": 3679,
      "labels": 3680,
      "Ġfake": 3681,
      "ĠPython": 3682,
      "cry": 3683,
      "ulate": 3684,
      "lished": 3685,
      "wsgi": 3686,
      "direction": 3687,
      "ĠGet": 3688,
      "PL": 3689,
      "uter": 3690,
      "ao": 3691,
      "_%": 3692,
      "assertFalse": 3693,
      "any": 3694,
      "itter": 3695,
      "builtin": 3696,
      "serialize": 3697,
      "Ġerrors": 3698,
      "pix": 3699,
      ".'": 3700,
      "aliases": 3701,
      "Ġexist": 3702,
      "elements": 3703,
      "Ġtenant": 3704,
      "Position": 3705,
      "Car": 3706,
      "(_('": 3707,
      "delay": 3708,
      "Ġfil": 3709,
      "'\"": 3710,
      "RA": 3711,
      "ques": 3712,
      "Ġconf": 3713,
      "install": 3714,
      "ĠBy": 3715,
      "ized": 3716,
      "ickle": 3717,
      "Ġairbyte": 3718,
      "44": 3719,
      "ared": 3720,
      "penden": 3721,
      "yaml": 3722,
      "Application": 3723,
      "ixed": 3724,
      "ĠTr": 3725,
      "Ġbuffer": 3726,
      "Ġhref": 3727,
      "freq": 3728,
      "/'": 3729,
      "Builder": 3730,
      "Ġiden": 3731,
      "'''": 3732,
      "Ġmanager": 3733,
      "thing": 3734,
      "variable": 3735,
      "API": 3736,
      "lert": 3737,
      "train": 3738,
      "ization": 3739,
      "Prefixed": 3740,
      "flat": 3741,
      "Ġdraw": 3742,
      "PT": 3743,
      "Ġatom": 3744,
      "PrefixedString": 3745,
      "21": 3746,
      "28": 3747,
      "Rel": 3748,
      "pages": 3749,
      "Ġprev": 3750,
      "Ġaccess": 3751,
      "Ġsite": 3752,
      "ĊĊĊĊ": 3753,
      "til": 3754,
      "ugh": 3755,
      "ET": 3756,
      "URE": 3757,
      "Ġmat": 3758,
      "Ġdevice": 3759,
      "Ġdetail": 3760,
      "Elements": 3761,
      "pb": 3762,
      "ĠTag": 3763,
      "Ġdocument": 3764,
      "USER": 3765,
      "destination": 3766,
      "logging": 3767,
      "Ġsupport": 3768,
      "SPACE": 3769,
      "matrix": 3770,
      "nu": 3771,
      "ĠSub": 3772,
      "Control": 3773,
      "axes": 3774,
      "uint": 3775,
      "PUT": 3776,
      "Ġrepr": 3777,
      "force": 3778,
      "Ġchildren": 3779,
      "Ġmore": 3780,
      "ked": 3781,
      "pad": 3782,
      "generator": 3783,
      "Ġ'\\\\": 3784,
      "used": 3785,
      "region": 3786,
      "75": 3787,
      "Ġnumpy": 3788,
      "finish": 3789,
      "rm": 3790,
      "stub": 3791,
      "Ġday": 3792,
      "Pri": 3793,
      "duc": 3794,
      "Ġparam": 3795,
      "Ġseq": 3796,
      "OD": 3797,
      "ĠĠĊĠĠĠ": 3798,
      "Ġencode": 3799,
      "attach": 3800,
      "roy": 3801,
      "Ġ\"-": 3802,
      "riend": 3803,
      "Ġstd": 3804,
      "paths": 3805,
      "entries": 3806,
      "Ġconst": 3807,
      "SA": 3808,
      "Ġqueryset": 3809,
      "override": 3810,
      ")*": 3811,
      "ven": 3812,
      "deli": 3813,
      "arm": 3814,
      "__()": 3815,
      "SQL": 3816,
      "iod": 3817,
      "oot": 3818,
      "38": 3819,
      "ĠLog": 3820,
      "cam": 3821,
      "roke": 3822,
      "\"][\"": 3823,
      "okies": 3824,
      "refresh": 3825,
      "Ġimple": 3826,
      "Ġ'''": 3827,
      "WN": 3828,
      "bi": 3829,
      "decor": 3830,
      "arDown": 3831,
      "Location": 3832,
      "Ġip": 3833,
      "ctx": 3834,
      "topic": 3835,
      "this": 3836,
      "intern": 3837,
      "LookupTable": 3838,
      "agg": 3839,
      "Obj": 3840,
      "ĠHTTP": 3841,
      "{\"": 3842,
      "Ġfi": 3843,
      "prev": 3844,
      "role": 3845,
      "aint": 3846,
      "fp": 3847,
      "rowser": 3848,
      "Ab": 3849,
      "sender": 3850,
      "Ġbr": 3851,
      "comments": 3852,
      "anim": 3853,
      "ope": 3854,
      "extension": 3855,
      "ummy": 3856,
      "Ġdesc": 3857,
      "DNS": 3858,
      "ffi": 3859,
      "signal": 3860,
      "choice": 3861,
      "DATA": 3862,
      "Ġlocation": 3863,
      "vie": 3864,
      "online": 3865,
      "ĠPo": 3866,
      "bob": 3867,
      "Ph": 3868,
      "Ġext": 3869,
      "translation": 3870,
      "getattr": 3871,
      "oid": 3872,
      "seek": 3873,
      "Style": 3874,
      "amera": 3875,
      "oly": 3876,
      "BUG": 3877,
      "home": 3878,
      "hs": 3879,
      "ESS": 3880,
      "Ġrq": 3881,
      "Ġ')": 3882,
      "Tool": 3883,
      "Dialog": 3884,
      "Ġobjects": 3885,
      "star": 3886,
      "Ġvolume": 3887,
      "unpack": 3888,
      "{{": 3889,
      "Proto": 3890,
      "unknown": 3891,
      "Ġwarnings": 3892,
      "pass": 3893,
      "calc": 3894,
      "Mapping": 3895,
      "Ġimp": 3896,
      "Ġrows": 3897,
      "Changed": 3898,
      "mar": 3899,
      "olution": 3900,
      "Binary": 3901,
      "NAL": 3902,
      "Ġindent": 3903,
      "cdk": 3904,
      "af": 3905,
      "Python": 3906,
      "geom": 3907,
      "Ġcookie": 3908,
      "Ġtokens": 3909,
      "fla": 3910,
      "Ġ'--": 3911,
      "Ġignore": 3912,
      "agement": 3913,
      "regate": 3914,
      "Ġsignature": 3915,
      "MI": 3916,
      "HER": 3917,
      "LL": 3918,
      "andard": 3919,
      "mask": 3920,
      "REQUEST": 3921,
      "xd": 3922,
      "Ġph": 3923,
      "failUnlessEqual": 3924,
      ":\\": 3925,
      "Ġuid": 3926,
      "Ġmessages": 3927,
      "Ġscale": 3928,
      "double": 3929,
      "'^": 3930,
      "Iter": 3931,
      "Ġta": 3932,
      "Oper": 3933,
      "Ġfp": 3934,
      "Feed": 3935,
      "Ġ_(\"": 3936,
      "vlc": 3937,
      "etwork": 3938,
      "putln": 3939,
      "ĠNode": 3940,
      "itle": 3941,
      "uster": 3942,
      "maining": 3943,
      "available": 3944,
      "Ġpackage": 3945,
      "Ġ60": 3946,
      "Ġregistry": 3947,
      "present": 3948,
      "Ġdelta": 3949,
      "Session": 3950,
      "ines": 3951,
      "37": 3952,
      "Ġfoo": 3953,
      "pytest": 3954,
      "Ġvalidate": 3955,
      "eff": 3956,
      "gui": 3957,
      "nel": 3958,
      "transaction": 3959,
      "Transport": 3960,
      "inator": 3961,
      "Ġpatch": 3962,
      "alt": 3963,
      "Ġbutton": 3964,
      "prec": 3965,
      "Ġbasestring": 3966,
      "Ġattribute": 3967,
      "vector": 3968,
      "{'": 3969,
      "Ġob": 3970,
      "Many": 3971,
      "CTION": 3972,
      "}}": 3973,
      "checked": 3974,
      "Ġclose": 3975,
      "sage": 3976,
      "Ġlong": 3977,
      "Partial": 3978,
      "TagLookupTable": 3979,
      "BuildTagLookupTable": 3980,
      "uction": 3981,
      "Ġfollow": 3982,
      "unch": 3983,
      "ĠHttpResponseRedirect": 3984,
      "Order": 3985,
      "CC": 3986,
      "Ġcar": 3987,
      "parameter": 3988,
      "prep": 3989,
      ".\\": 3990,
      "push": 3991,
      "icro": 3992,
      "Link": 3993,
      ")).": 3994,
      "jid": 3995,
      "Ġlanguage": 3996,
      "ĠOut": 3997,
      "utc": 3998,
      "dr": 3999,
      "ELD": 4000,
      "zA": 4001,
      "counter": 4002,
      "perm": 4003,
      "Ġ40": 4004,
      "Bar": 4005,
      "Ġwhere": 4006,
      "Ġchannel": 4007,
      "Ġtri": 4008,
      "inline": 4009,
      "exceptions": 4010,
      "sig": 4011,
      "Ġ30": 4012,
      "super": 4013,
      "resp": 4014,
      "ĠPath": 4015,
      "Dir": 4016,
      "Ġnon": 4017,
      "ĊĠĊĠĠĠĠĠĠĠĠĠĠĠĠĠĠĠĠĠĠĠĠĠĠĠĠĠĠĠĠĠĠĠĠĠĠĠĠĠĠĠĠĠĠĠĠĠĠĠĠĠĠĠĠĠĠĠĠĠĠĠĠĠĠĠĠĠĠĠĠĠ": 4018,
      "rences": 4019,
      "Pos": 4020,
      "Ġrepo": 4021,
      "Ġact": 4022,
      "Ġwhich": 4023,
      "Host": 4024,
      "Debug": 4025,
      "oci": 4026,
      "cription": 4027,
      "writeFieldEnd": 4028,
      "writeFieldBegin": 4029,
      "expr": 4030,
      "spath": 4031,
      "Ġ29": 4032,
      "cols": 4033,
      "break": 4034,
      "ublic": 4035,
      "dered": 4036,
      "depth": 4037,
      "convert": 4038,
      ":-": 4039,
      "Ġthreading": 4040,
      "ise": 4041,
      "ĠĠĠĠĠĠĠĠĠ": 4042,
      "ĠĠĠĠĠĠĠĠĠĠĠĠĠĠĠĠĠĠĠĠĠĠ": 4043,
      "canvas": 4044,
      "utes": 4045,
      "requen": 4046,
      "apshot": 4047,
      "ĊĠĊ": 4048,
      "ornado": 4049,
      "Profile": 4050,
      "Ġdiff": 4051,
      "icense": 4052,
      "identity": 4053,
      "ĠThe": 4054,
      "CS": 4055,
      "airbyte": 4056,
      "Url": 4057,
      "Options": 4058,
      "yy": 4059,
      "complete": 4060,
      "cost": 4061,
      "Ġusers": 4062,
      "lengthString": 4063,
      "ragment": 4064,
      "95": 4065,
      "hi": 4066,
      "some": 4067,
      "Ġca": 4068,
      "Ġinst": 4069,
      "Ġ11": 4070,
      "dar": 4071,
      "Ġma": 4072,
      "*.": 4073,
      "hook": 4074,
      "Ġmd": 4075,
      "atcher": 4076,
      "gments": 4077,
      "controller": 4078,
      "Ġbits": 4079,
      "(_(\"": 4080,
      "Ġlineno": 4081,
      "streams": 4082,
      "cel": 4083,
      "86": 4084,
      "addCallback": 4085,
      "Ġhead": 4086,
      ":'": 4087,
      "_[": 4088,
      "Ġunique": 4089,
      "interfaces": 4090,
      "andid": 4091,
      "visible": 4092,
      "mat": 4093,
      "ftime": 4094,
      "INTER": 4095,
      "lack": 4096,
      "ips": 4097,
      "Product": 4098,
      "OF": 4099,
      "scribe": 4100,
      "license": 4101,
      "ets": 4102,
      "Iden": 4103,
      ".\",": 4104,
      "rpc": 4105,
      "Ġyear": 4106,
      "Ġbind": 4107,
      "Ġafter": 4108,
      "tro": 4109,
      "tasks": 4110,
      "creen": 4111,
      "mbed": 4112,
      "sep": 4113,
      "ĠAND": 4114,
      "methods": 4115,
      "Offset": 4116,
      "future": 4117,
      "tool": 4118,
      "If": 4119,
      "high": 4120,
      "remote": 4121,
      "SELECT": 4122,
      "tices": 4123,
      "('.": 4124,
      "TED": 4125,
      "geo": 4126,
      "straint": 4127,
      "called": 4128,
      "security": 4129,
      "ĊĠĠĠĠĠĠĠĠĠĠĠĠĠĠĠĠĠĠĠĠĠĠĠĠĠĠĠĠĠĠĠĊĠĠĠĠĠĠĠ": 4130,
      "Initi": 4131,
      "Ġaxis": 4132,
      "Level": 4133,
      "analy": 4134,
      "before": 4135,
      "Password": 4136,
      "scheme": 4137,
      "ĠTime": 4138,
      "DA": 4139,
      "Rect": 4140,
      "WA": 4141,
      "colors": 4142,
      "identifier": 4143,
      "apply": 4144,
      "Ġwrap": 4145,
      "Ġwin": 4146,
      ",))": 4147,
      "Document": 4148,
      "Ġrv": 4149,
      "formset": 4150,
      "pendent": 4151,
      "nected": 4152,
      "bus": 4153,
      "scan": 4154,
      "editor": 4155,
      "avi": 4156,
      "ĠComp": 4157,
      "Ġmonth": 4158,
      "team": 4159,
      "ĠSer": 4160,
      "LINE": 4161,
      "Ġconnector": 4162,
      "lg": 4163,
      "ONE": 4164,
      "limits": 4165,
      "90": 4166,
      "Av": 4167,
      "Thread": 4168,
      "cus": 4169,
      "sd": 4170,
      "tification": 4171,
      "LIST": 4172,
      "ĊĠĠĊĠ": 4173,
      "NU": 4174,
      "flag": 4175,
      "speed": 4176,
      "Ġ>>": 4177,
      "hour": 4178,
      "integer": 4179,
      "construct": 4180,
      "DELETE": 4181,
      "HERE": 4182,
      "Ġabs": 4183,
      "Ġreactor": 4184,
      "else": 4185,
      "policy": 4186,
      "Ġsimplejson": 4187,
      "mime": 4188,
      ".*?": 4189,
      "links": 4190,
      "Ġ24": 4191,
      "Ġprotocol": 4192,
      "sock": 4193,
      "Ġrule": 4194,
      ")+": 4195,
      "vec": 4196,
      "Ġ'&": 4197,
      "Ġ\"\",": 4198,
      "condition": 4199,
      "Names": 4200,
      "Ġugettext": 4201,
      "ART": 4202,
      ")\")": 4203,
      "Ġinit": 4204,
      "proj": 4205,
      "Ġsection": 4206,
      "Ġfailed": 4207,
      "accept": 4208,
      "done": 4209,
      "sq": 4210,
      "Ġbot": 4211,
      "quested": 4212,
      "Ġdf": 4213,
      "keep": 4214,
      "area": 4215,
      "requency": 4216,
      "Ġreal": 4217,
      "served": 4218,
      "loaded": 4219,
      "[:,": 4220,
      ")\",": 4221,
      "lon": 4222,
      "ĠAuth": 4223,
      "orizont": 4224,
      "85": 4225,
      "ĠMock": 4226,
      "Ġpl": 4227,
      "loor": 4228,
      "chars": 4229,
      "game": 4230,
      "alpha": 4231,
      "lick": 4232,
      "Float": 4233,
      "Ġmem": 4234,
      "Ġconsumer": 4235,
      "pg": 4236,
      "locale": 4237,
      "ĠBook": 4238,
      "You": 4239,
      "extract": 4240,
      ",)": 4241,
      "Ġ])": 4242,
      "setdefault": 4243,
      "reduce": 4244,
      "256": 4245,
      "sertion": 4246,
      "Ġ14": 4247,
      "Ġ//": 4248,
      "FIX": 4249,
      "orizontal": 4250,
      "Cho": 4251,
      "PER": 4252,
      "Ġ\"--": 4253,
      "begin": 4254,
      "Ġsuccess": 4255,
      "acity": 4256,
      "defaults": 4257,
      "acquire": 4258,
      "Ġ201": 4259,
      "artist": 4260,
      "=['": 4261,
      "LEN": 4262,
      "subject": 4263,
      "strftime": 4264,
      "ĠNum": 4265,
      "OM": 4266,
      "generic": 4267,
      "original": 4268,
      "Ġ{})": 4269,
      "normal": 4270,
      "Description": 4271,
      "__\":": 4272,
      "Comple": 4273,
      "lobals": 4274,
      "offline": 4275,
      "Ġimg": 4276,
      ".,": 4277,
      "exclude": 4278,
      "tificate": 4279,
      "steps": 4280,
      "listen": 4281,
      "mouse": 4282,
      "Ġ>>>": 4283,
      "DEBUG": 4284,
      "GRO": 4285,
      "ĠĠĠĊĠĠĠ": 4286,
      "Ġsender": 4287,
      "Ġjs": 4288,
      "QtCore": 4289,
      "dom": 4290,
      "Ġtimedelta": 4291,
      "Ġskip": 4292,
      ">%": 4293,
      "gon": 4294,
      "Ġgen": 4295,
      "OB": 4296,
      "duration": 4297,
      "spect": 4298,
      "permissions": 4299,
      "branch": 4300,
      "+(\"": 4301,
      "Next": 4302,
      "drive": 4303,
      "alled": 4304,
      "umeric": 4305,
      "Current": 4306,
      ":`": 4307,
      "Ġstack": 4308,
      "ker": 4309,
      "Ġreplace": 4310,
      "Title": 4311,
      "Ġetree": 4312,
      "Comment": 4313,
      "ĠQu": 4314,
      ":])": 4315,
      ";\\": 4316,
      "ĊĊĠĠĠĠĠĠĠĠĠĠĠĠĠĠĠĠĠĠĠ": 4317,
      "thrift": 4318,
      "Ġsplit": 4319,
      "Ġcfg": 4320,
      "$',": 4321,
      "fmt": 4322,
      "xff": 4323,
      "many": 4324,
      "Update": 4325,
      "Ren": 4326,
      "ĊĠĠĠĠĠĠĠĠĠĠĠĠĠĠĠĠĠĠĠĠĠĠĠĠĠĠĠĊĠĠĠĠĠĠĠ": 4327,
      "TS": 4328,
      "zen": 4329,
      "~~~~~~~~": 4330,
      "ĠFeature": 4331,
      "world": 4332,
      "STY": 4333,
      "ring": 4334,
      "ops": 4335,
      "answer": 4336,
      "Decode": 4337,
      "async": 4338,
      "shift": 4339,
      "}:": 4340,
      "Ġbar": 4341,
      "ĠTemplate": 4342,
      "Ġaccount": 4343,
      "Del": 4344,
      "database": 4345,
      "single": 4346,
      "Row": 4347,
      "ĠAirbyte": 4348,
      "Fields": 4349,
      "Suite": 4350,
      "Ġ$": 4351,
      "WS": 4352,
      "quires": 4353,
      "ĠĠĠĠĠĠĊĠĠĠ": 4354,
      "Ġdatabase": 4355,
      "STYLE": 4356,
      "ression": 4357,
      "Ġ''.": 4358,
      "'[": 4359,
      "DATE": 4360,
      "rb": 4361,
      "ince": 4362,
      "Ġinterface": 4363,
      "zeros": 4364,
      "43": 4365,
      "enable": 4366,
      "timezone": 4367,
      "pick": 4368,
      "internal": 4369,
      "lery": 4370,
      "WORD": 4371,
      "em": 4372,
      "just": 4373,
      "Controller": 4374,
      "Ġsubprocess": 4375,
      "plain": 4376,
      "lap": 4377,
      "usage": 4378,
      "Ġdirectory": 4379,
      "Unknown": 4380,
      "65": 4381,
      "rac": 4382,
      "Ġempty": 4383,
      "Op": 4384,
      "revision": 4385,
      "Ġinto": 4386,
      "ota": 4387,
      "Args": 4388,
      "emit": 4389,
      "ĠĠĠĠĠĠĠĠĠĠĠĠĠ": 4390,
      "orph": 4391,
      "white": 4392,
      "false": 4393,
      "Can": 4394,
      "CA": 4395,
      ".\"\"\"": 4396,
      "Http": 4397,
      "inst": 4398,
      "lear": 4399,
      "atar": 4400,
      "Ġtyping": 4401,
      "dify": 4402,
      "Ġdetails": 4403,
      "pdf": 4404,
      "failure": 4405,
      "Ġcalc": 4406,
      "Received": 4407,
      "versions": 4408,
      "Ġdisplay": 4409,
      "NFe": 4410,
      "acters": 4411,
      "ĠLicense": 4412,
      "Delete": 4413,
      "payload": 4414,
      "_,": 4415,
      "Ġavailable": 4416,
      "EV": 4417,
      "wiki": 4418,
      "Ġ/></": 4419,
      "supported": 4420,
      "pag": 4421,
      "USE": 4422,
      "sorted": 4423,
      ")}": 4424,
      "']),": 4425,
      "########": 4426,
      "Plugin": 4427,
      "Ġflat": 4428,
      "running": 4429,
      "Li": 4430,
      "Ġrsp": 4431,
      "Ġpyglet": 4432,
      "ValueError": 4433,
      "Disp": 4434,
      "mag": 4435,
      "ĊĠĊĠĠĠĠĠĠĠĠĠĠĠĠĠĠĠĠĠĠĠĠĠĠĠĠĠĠĠĠĠĠĠĠĠĠĠĠĠĠĠĠĠĠĠĠĠĠĠĠĠĠĠĠĠĠĠĠĠĠĠĠĠĠĠĠĠ": 4436,
      "radius": 4437,
      "Graph": 4438,
      "ja": 4439,
      "Ġsched": 4440,
      "expression": 4441,
      "tile": 4442,
      "ynam": 4443,
      "attrib": 4444,
      "reference": 4445,
      "getitem": 4446,
      "../": 4447,
      "Ġcharset": 4448,
      "JE": 4449,
      "found": 4450,
      "pilot": 4451,
      "ĠDEFAULT": 4452,
      "='',": 4453,
      "nova": 4454,
      "ws": 4455,
      "dic": 4456,
      "ULL": 4457,
      "Ġallowed": 4458,
      "']))": 4459,
      "/{": 4460,
      "eries": 4461,
      "arse": 4462,
      "Ġdefin": 4463,
      "private": 4464,
      "BC": 4465,
      "hidden": 4466,
      "summary": 4467,
      "gi": 4468,
      "Loader": 4469,
      "ĠtearDown": 4470,
      "align": 4471,
      "([\"": 4472,
      "Ġlang": 4473,
      "QtGui": 4474,
      "Ġsort": 4475,
      "UID": 4476,
      "px": 4477,
      "inte": 4478,
      "(('": 4479,
      "45": 4480,
      "cat": 4481,
      "Ġbox": 4482,
      "fname": 4483,
      "Ġsupported": 4484,
      ",),": 4485,
      "gra": 4486,
      "Ġscope": 4487,
      "permission": 4488,
      "Ġgot": 4489,
      "lector": 4490,
      "CHE": 4491,
      "video": 4492,
      "Ġns": 4493,
      "ĠST": 4494,
      "week": 4495,
      "ĠProduct": 4496,
      "ĠĠĠĠĠĠĠĠĠĠĠĠĠĠĠĠĠ": 4497,
      "uplic": 4498,
      "instances": 4499,
      "urls": 4500,
      "chemy": 4501,
      "ĠMessage": 4502,
      ",-": 4503,
      "ĠOutput": 4504,
      "ĠĠĠĠĠĠĠĠĠĠĠĠĠĠĠĠĠĠ": 4505,
      "assi": 4506,
      "scal": 4507,
      "CF": 4508,
      "Ġ255": 4509,
      "Management": 4510,
      "'(": 4511,
      "System": 4512,
      "credentials": 4513,
      "Entity": 4514,
      "Ġdown": 4515,
      "Ġfeatures": 4516,
      "schedule": 4517,
      "oom": 4518,
      "Ġtxt": 4519,
      "Ġtests": 4520,
      "Elem": 4521,
      "Ġfast": 4522,
      "country": 4523,
      "require": 4524,
      "')[": 4525,
      "Ġgraph": 4526,
      "Ġpd": 4527,
      "Ġweight": 4528,
      "Copy": 4529,
      "Email": 4530,
      "deo": 4531,
      "ĊĠĠĠĠĠĠĠĠĠĠĠĠĊĠĠĠ": 4532,
      "}'": 4533,
      "jor": 4534,
      "ĠValidationError": 4535,
      "Ġfill": 4536,
      "provider": 4537,
      "ationship": 4538,
      "FromString": 4539,
      "ĠIndex": 4540,
      "ERIC": 4541,
      "aved": 4542,
      "bb": 4543,
      "Ġbad": 4544,
      "NAMESPACE": 4545,
      "Ġdestination": 4546,
      "cip": 4547,
      "Ġow": 4548,
      "Ġbound": 4549,
      "We": 4550,
      "enum": 4551,
      "StringIO": 4552,
      "declar": 4553,
      "(',": 4554,
      "48": 4555,
      "CL": 4556,
      "deleted": 4557,
      "Ġdecode": 4558,
      "Ġtransform": 4559,
      "refs": 4560,
      "agraph": 4561,
      "Book": 4562,
      "Ġpoints": 4563,
      "Ġ\"\")": 4564,
      "Variable": 4565,
      "MPL": 4566,
      "Ġprimary": 4567,
      "cancel": 4568,
      "Ġinstall": 4569,
      "rit": 4570,
      "feast": 4571,
      "FORMS": 4572,
      "sym": 4573,
      "Ġsee": 4574,
      "servers": 4575,
      "Ġ50": 4576,
      "Ġcomponent": 4577,
      "entities": 4578,
      "Values": 4579,
      "ocker": 4580,
      "MAP": 4581,
      "rules": 4582,
      "disk": 4583,
      "getVarInt": 4584,
      "ANG": 4585,
      "DebugFormat": 4586,
      "Lock": 4587,
      "Ġurlparse": 4588,
      "ĠWHERE": 4589,
      "Ġrole": 4590,
      "DNSService": 4591,
      "fv": 4592,
      "ducer": 4593,
      "abspath": 4594,
      "Warning": 4595,
      "rough": 4596,
      "ĠCAR": 4597,
      "arr": 4598,
      "extensions": 4599,
      "ĠXML": 4600,
      "vided": 4601,
      "TYPES": 4602,
      "defined": 4603,
      "Ġapplication": 4604,
      "Ġarguments": 4605,
      "98": 4606,
      "FLAGS": 4607,
      "priority": 4608,
      "PR": 4609,
      "MessageBox": 4610,
      "cfg": 4611,
      "ĠSh": 4612,
      "READ": 4613,
      "TextField": 4614,
      "ĠForm": 4615,
      "ipel": 4616,
      "76": 4617,
      "master": 4618,
      "Ġiss": 4619,
      "ĊĠĠĠĠĠĠĠĠĠĠĠĠĠĠĠĠĠĠĠĠĠĠĠĠĠĠĠĠĠĠĠĠĠĠĠĠĠĠĠĠĠĠĠĠĠĠĠĠĠĠĠĠĠĠĠĠĠĠĠĠĠĠĠĠĠĠĠĠĠĠĠĠĠĠĠĠĠĠĠĠĠĠĠĠĠĠĠĠĠĠĠĠĠĠĠĠĠĠĠĠĠĠĠĠ": 4620,
      "contains": 4621,
      "ĠMy": 4622,
      "ĠID": 4623,
      "tor": 4624,
      "texture": 4625,
      "lendar": 4626,
      "ĠOn": 4627,
      "avail": 4628,
      "assign": 4629,
      "Ġdif": 4630,
      "Reference": 4631,
      "ĊĠĠĠĠĠĠĠĠĠĠĠĠĠĠĠĠĠĠĠĠĠĠĠĊĠĠĠĠĠĠĠ": 4632,
      "ĠAd": 4633,
      "Ġcolors": 4634,
      "000000": 4635,
      "}\\": 4636,
      "Ġbatch": 4637,
      "Ġcomple": 4638,
      "Ax": 4639,
      "Airbyte": 4640,
      "Ġedge": 4641,
      "Parse": 4642,
      "closed": 4643,
      "Ġsignal": 4644,
      "BinaryProtocol": 4645,
      "Parent": 4646,
      "lab": 4647,
      "ily": 4648,
      "Ġwhen": 4649,
      "ADD": 4650,
      "ues": 4651,
      "Ġbut": 4652,
      "Ġexten": 4653,
      "ĠModel": 4654,
      "Extension": 4655,
      "reply": 4656,
      "Mem": 4657,
      "ProtocolBuffer": 4658,
      "precated": 4659,
      "Min": 4660,
      "rf": 4661,
      "Ġkind": 4662,
      "Ġalready": 4663,
      "rea": 4664,
      "ĠCON": 4665,
      "Ġ).": 4666,
      "One": 4667,
      "Ġmissing": 4668,
      "ElemNumber": 4669,
      "Ġ...": 4670,
      "person": 4671,
      "submit": 4672,
      "Ġalias": 4673,
      "sparse": 4674,
      "Backend": 4675,
      "Project": 4676,
      "METH": 4677,
      "Search": 4678,
      "ĠURL": 4679,
      "ĠContent": 4680,
      "ByteSize": 4681,
      "etadata": 4682,
      "Ġcommon": 4683,
      "Ġloader": 4684,
      "follow": 4685,
      "wrapper": 4686,
      "partition": 4687,
      "sca": 4688,
      "memory": 4689,
      "bum": 4690,
      "ĠĠĠĠĠĠĠĠĠĠĠĠĠĠĠĠĠĠĠĠ": 4691,
      "Ġmail": 4692,
      "isinstance": 4693,
      "1234": 4694,
      "addWidget": 4695,
      "pose": 4696,
      "Ġproc": 4697,
      "CHAN": 4698,
      "arguments": 4699,
      "lour": 4700,
      "ctionary": 4701,
      "grad": 4702,
      "Ġtrack": 4703,
      "jav": 4704,
      "geos": 4705,
      "Ġremote": 4706,
      "Ġexpi": 4707,
      "lity": 4708,
      "AG": 4709,
      "dn": 4710,
      "Ġsage": 4711,
      "(\"<": 4712,
      "Category": 4713,
      "basic": 4714,
      "ĠĠĠĠĠĠĠĊĠĠĠ": 4715,
      "Ġ43": 4716,
      "associ": 4717,
      "Ġcondition": 4718,
      "Ġupdated": 4719,
      "clicked": 4720,
      "gre": 4721,
      "Ġreason": 4722,
      "Ġsig": 4723,
      "Ġexclude": 4724,
      "internet": 4725,
      "Cl": 4726,
      "Ġ32": 4727,
      "urlen": 4728,
      "resources": 4729,
      "ĠRun": 4730,
      "Icon": 4731,
      "Ġflow": 4732,
      "Ġtopic": 4733,
      "trols": 4734,
      "Ġsecret": 4735,
      "ORI": 4736,
      "ĠEvent": 4737,
      "urlencode": 4738,
      "Sc": 4739,
      "rary": 4740,
      "Ġpickle": 4741,
      "Ġsn": 4742,
      "Sequence": 4743,
      "iven": 4744,
      "Flags": 4745,
      "Range": 4746,
      "categories": 4747,
      "hint": 4748,
      "nick": 4749,
      "ĊĠĠĠĠĠĠĠĠĠĠĠĠĠĠĠĠĠĠĠĠĠĠĠĠĠĠĠĠĠĠĠĠĠĠĠĠĠĠĠĠĠĠĠĠĠĠĠĠĠĠĊĠĠĠĠĠĠĠ": 4750,
      "Ġproxy": 4751,
      "sur": 4752,
      "tn": 4753,
      "\"]:": 4754,
      "Network": 4755,
      "dmp": 4756,
      "reshold": 4757,
      "ĠColumn": 4758,
      "Panel": 4759,
      "cell": 4760,
      "direc": 4761,
      "ĠObject": 4762,
      "ALI": 4763,
      "Ġsmart": 4764,
      "rozen": 4765,
      "Ġsuite": 4766,
      "setText": 4767,
      "TENT": 4768,
      "ross": 4769,
      "worker": 4770,
      "processor": 4771,
      "download": 4772,
      "FE": 4773,
      "Reader": 4774,
      "Ġparameter": 4775,
      "pending": 4776,
      "lots": 4777,
      "Ġ13": 4778,
      "free": 4779,
      "question": 4780,
      "LOW": 4781,
      "Ġpygame": 4782,
      "Bad": 4783,
      "gy": 4784,
      "Unit": 4785,
      "restype": 4786,
      "ascript": 4787,
      "ĠprintElemNumber": 4788,
      "ĠReg": 4789,
      "Ġpayload": 4790,
      "unctuation": 4791,
      "previous": 4792,
      "Ġce": 4793,
      "distri": 4794,
      "Ġstorage": 4795,
      "Ġshutil": 4796,
      ")')": 4797,
      "dns": 4798,
      "virt": 4799,
      "builder": 4800,
      "Ġoriginal": 4801,
      "WAR": 4802,
      "Prop": 4803,
      "ĠNumber": 4804,
      "Required": 4805,
      "bg": 4806,
      "alchemy": 4807,
      "\"\"\")": 4808,
      "Ġ18": 4809,
      "Ġcontainer": 4810,
      "obao": 4811,
      "('_": 4812,
      "(\"-": 4813,
      "999": 4814,
      "Ġprevious": 4815,
      "ĠKeyword": 4816,
      "Auto": 4817,
      "Ġplayer": 4818,
      "alization": 4819,
      "Ġpop": 4820,
      "chain": 4821,
      "Ġcontact": 4822,
      "Ġdirection": 4823,
      "quivo": 4824,
      "123": 4825,
      "127": 4826,
      "ceiver": 4827,
      "got": 4828,
      "Ġeasy": 4829,
      "TIC": 4830,
      "Mon": 4831,
      "plotlib": 4832,
      "suite": 4833,
      "Ġ19": 4834,
      "ĠĠĠĠĠĠĠĠĠĠĠĠĠĠĠĠĠĠĠĠĠĠĠĠĠĠĠ": 4835,
      "dig": 4836,
      "ĠFI": 4837,
      "MODE": 4838,
      "ynamic": 4839,
      "cies": 4840,
      "Ġbefore": 4841,
      "ivy": 4842,
      "series": 4843,
      "RequestContext": 4844,
      "scriptor": 4845,
      "Disabled": 4846,
      "Cookie": 4847,
      "Ġeditor": 4848,
      "vor": 4849,
      "Ġord": 4850,
      "Ġbucket": 4851,
      "500": 4852,
      "inner": 4853,
      "Ġsubject": 4854,
      "Job": 4855,
      "endpoint": 4856,
      "Contains": 4857,
      "border": 4858,
      "ould": 4859,
      "Ġmay": 4860,
      "itude": 4861,
      "Ġstatic": 4862,
      "licit": 4863,
      "FN": 4864,
      "rad": 4865,
      "reason": 4866,
      "[:]": 4867,
      "AA": 4868,
      "Failed": 4869,
      "vm": 4870,
      "Parameter": 4871,
      "FeatureView": 4872,
      "factor": 4873,
      "Ġbygroups": 4874,
      "Pix": 4875,
      "lite": 4876,
      "Ġscript": 4877,
      "confirm": 4878,
      "Ġast": 4879,
      "Ġ::": 4880,
      "ade": 4881,
      "green": 4882,
      "remaining": 4883,
      "ulk": 4884,
      "Ġconvert": 4885,
      "({\"": 4886,
      "``": 4887,
      "tractor": 4888,
      "Ġlayout": 4889,
      "Ġ[('": 4890,
      "argin": 4891,
      "queryset": 4892,
      "rup": 4893,
      "docs": 4894,
      "criptor": 4895,
      "METHOD": 4896,
      "payment": 4897,
      "Ġpadding": 4898,
      "Ġfinal": 4899,
      "TypeError": 4900,
      "DF": 4901,
      "igr": 4902,
      "presen": 4903,
      "Ġevents": 4904,
      "CHO": 4905,
      "Ġopenpilot": 4906,
      "apps": 4907,
      "normalize": 4908,
      "Person": 4909,
      "=\\": 4910,
      "Last": 4911,
      "rgb": 4912,
      "Ġproto": 4913,
      "Ġcommit": 4914,
      "Ġneed": 4915,
      "olve": 4916,
      "poly": 4917,
      "Ġsecond": 4918,
      "cm": 4919,
      "ĠSE": 4920,
      "rency": 4921,
      "ween": 4922,
      "Ġbeen": 4923,
      "operator": 4924,
      "ae": 4925,
      "Ġsample": 4926,
      "96": 4927,
      "Step": 4928,
      "cir": 4929,
      "ident": 4930,
      "where": 4931,
      "trace": 4932,
      "prob": 4933,
      "Ġparsed": 4934,
      "ICES": 4935,
      "istration": 4936,
      "NUMERIC": 4937,
      "82": 4938,
      "AX": 4939,
      "vals": 4940,
      "inger": 4941,
      "Clo": 4942,
      "IM": 4943,
      "ĊĠĠĠĠĠĠĠĠĠĠĠĠĠĠĠĠĠĠĠĠĠĠĠĠĠĠĠĠĠĠĠĠĠĠĠĠĠĠĠĠĠĠĠĠĠĠĊĠĠĠĠĠĠĠ": 4944,
      "Argument": 4945,
      "medi": 4946,
      "ested": 4947,
      "BooleanField": 4948,
      "ĠThis": 4949,
      "Tri": 4950,
      "ysi": 4951,
      "notify": 4952,
      "([(": 4953,
      "ĊĠĠĠĠĠĠĠĠĠĠĠĠĠĠĠĠĠĠĠĠĠĠĠĠĠĠĠĠĠĠĠĠĠĠĠĊĠĠĠĠĠĠĠ": 4954,
      "Ġdat": 4955,
      "ĠIter": 4956,
      "Ġdistance": 4957,
      "Ġapply": 4958,
      "openid": 4959,
      "SCRI": 4960,
      "ĠĠĠĠĠĠĠĠĊĠĠĠĠĠĠĠ": 4961,
      "Ġrect": 4962,
      "putPrefixedString": 4963,
      "rain": 4964,
      "Ġshort": 4965,
      "ĊĠĠĠĠĠĠĠĊĠ": 4966,
      "Ġsw": 4967,
      "TypeType": 4968,
      "ĠLo": 4969,
      "NOT": 4970,
      "JECT": 4971,
      "=-": 4972,
      "GHT": 4973,
      "strings": 4974,
      "ĠApp": 4975,
      ")-": 4976,
      "Wrapper": 4977,
      "awn": 4978,
      "andidate": 4979,
      "Msg": 4980,
      "nail": 4981,
      "vs": 4982,
      "mean": 4983,
      "timer": 4984,
      "Height": 4985,
      "aste": 4986,
      "RF": 4987,
      "(':": 4988,
      "Wh": 4989,
      "mas": 4990,
      "sect": 4991,
      "chart": 4992,
      "Ġworld": 4993,
      "umbnail": 4994,
      "=',": 4995,
      "received": 4996,
      "amily": 4997,
      "ĊĠĠĠĠĠĠĠĠĠĠĠĠĠĠĠĠĠĠĠĠĠĠĠĠĠĠĠĠĠĠĠĠĠĠĠĠĠĠĠĠĠĠĠĠĠĠĠĠĠĠĠĠĠĠĠĠĊĠĠĠĠĠĠĠ": 4998,
      "97": 4999,
      "missing": 5000,
      "att": 5001,
      "Ġsafe": 5002,
      "ĊĠĠĠĠĠĠĠĠĠĠĠĠĠĠĠĠĠĠĠĠĠĠĠĠĠĠĠĠĠĠĠĠĠĠĠĠĠĠĠĠĠĠĠĠĠĠĠĠĠĠĠĊĠĠĠĠĠĠĠ": 5003,
      "LED": 5004,
      "Ġimplements": 5005,
      "ian": 5006,
      "estination": 5007,
      "ĊĠĠĠĠĠĠĠĠĠĠĠĠĠĠĠĠĠĠĠĠĠĠĠĠĠĠĠĠĠĠĠĠĠĠĠĠĠĊĠĠĠĠĠĠĠ": 5008,
      "ĊĠĠĠĠĠĠĠĠĠĠĠĠĠĠĠĠĠĠĠĠĠĠĠĠĠĠĠĠĠĠĠĠĠĠĠĠĠĠĠĠĠĠĠĠĊĠĠĠĠĠĠĠ": 5009,
      "alizer": 5010,
      "Flow": 5011,
      "ĊĠĠĠĠĠĠĠĠĠĠĠĠĠĠĠĠĠĠĠĠĠĠĠĠĠĠĠĠĠĠĠĠĠĠĠĠĊĠĠĠĠĠĠĠ": 5012,
      "Ġ\"&": 5013,
      "xtag": 5014,
      "ferences": 5015,
      "Ġregister": 5016,
      "Interface": 5017,
      ")?": 5018,
      "drop": 5019,
      "Ġstats": 5020,
      "IS": 5021,
      "cookies": 5022,
      "Ġinteger": 5023,
      "Ġdriver": 5024,
      "iant": 5025,
      "ĊĠĠĠĠĠĠĠĠĠĠĠĠĠĠĠĠĠĠĠĠĠĠĠĠĠĠĠĠĠĠĠĠĠĠĠĠĠĠĠĠĊĠĠĠĠĠĠĠ": 5026,
      "Ġpytest": 5027,
      "Formatter": 5028,
      "Ġstrip": 5029,
      "')]": 5030,
      "ĠIP": 5031,
      "patterns": 5032,
      "ĊĠĠĠĠĠĠĠĠĠĠĠĠĠĠĠĠĠĠĠĠĠĠĠĠĠĠĠĠĠĠĠĠĠĠĠĠĠĠĠĠĠĠĠĠĠĠĠĠĠĊĠĠĠĠĠĠĠ": 5033,
      "Ġdefaults": 5034,
      "Initialized": 5035,
      ",\"": 5036,
      "ĊĠĠĠĠĠĠĠĠĠĠĠĠĠĠĠĠĠĠĠĠĠĠĠĠĠĠĠĠĠĠĠĠĠĠĠĠĠĠĠĠĠĠĠĠĠĠĠĠĠĠĠĠĠĊĠĠĠĠĠĠĠ": 5037,
      "ĠPost": 5038,
      "ĠAc": 5039,
      "CONTENT": 5040,
      ".',": 5041,
      "oogle": 5042,
      "serial": 5043,
      "SERVER": 5044,
      "ev": 5045,
      "----------------": 5046,
      "Ġcollections": 5047,
      "lider": 5048,
      "ĠDate": 5049,
      "Ġaddr": 5050,
      "gtk": 5051,
      "sim": 5052,
      "Descriptor": 5053,
      "Ġtornado": 5054,
      "codes": 5055,
      "charset": 5056,
      "ĊĠĊĠĠĠĠĠĠĠĠĠĠĠĠĠĠĠĠĠĠĠĠĠĠĠĠĠĠĠĠĠĠĠĠĠĠĠĠĠĠĠĠĠĠĠĠĠĠĠĠĠĠĠĠĠĠĠĠĠĠĠĠĠĠĠĠĠĠĠĠĠĊĠĠĠĠĠĠĠĠĠĠĠĠĠĠĠĠĠĠĠĠĠĠĠĠĠĠĠĠĠĠĠĠĠĠĠĠĠĠĠĠĠĠĠĠĠĠĠĠĠĠĠĠĠĠĠĠĠĠĠĠĠĠĠĠĠĠĠ": 5057,
      "ĊĠĠĠĠĠĠĠĠĠĠĠĠĠĠĠĠĠĠĠĠĠĠĠĠĠĠĠĠĠĠĠĠĠĠĠĠĠĠĠĠĠĠĠĠĠĠĠĊĠĠĠĠĠĠĠ": 5058,
      "Ġproperties": 5059,
      "Ġdisp": 5060,
      "Ġklass": 5061,
      "Param": 5062,
      "Ġspace": 5063,
      "FORMAT": 5064,
      "resolve": 5065,
      "ĊĠĠĠĠĠĠĠĠĠĠĠĠĠĠĠĠĠĠĠĠĠĠĠĠĠĠĠĠĠĠĠĠĠĠĠĠĠĠĠĠĠĠĠĠĠĠĠĠĠĠĠĠĊĠĠĠĠĠĠĠ": 5066,
      "Jo": 5067,
      "Ġcallable": 5068,
      "Ġfilters": 5069,
      "!\"": 5070,
      "hello": 5071,
      "leg": 5072,
      "Ġ'\"": 5073,
      "focus": 5074,
      "Ġ\"\"\"\"\"\"": 5075,
      "Ġboto": 5076,
      "environment": 5077,
      "arrow": 5078,
      "conv": 5079,
      "ĠOr": 5080,
      "members": 5081,
      "gis": 5082,
      "Ġdepth": 5083,
      "Ġdependent": 5084,
      "Proxy": 5085,
      "ause": 5086,
      "tivity": 5087,
      "Err": 5088,
      "Authentic": 5089,
      "Device": 5090,
      "Ġpython": 5091,
      "arge": 5092,
      "DD": 5093,
      "inja": 5094,
      "Ġlibvlc": 5095,
      "slot": 5096,
      "Ġcor": 5097,
      "acing": 5098,
      "CODE": 5099,
      "mq": 5100,
      "reactor": 5101,
      "Ġbyte": 5102,
      "hide": 5103,
      "udio": 5104,
      "atio": 5105,
      "localhost": 5106,
      "findall": 5107,
      "connected": 5108,
      "Ġgeo": 5109,
      "FR": 5110,
      "GR": 5111,
      "dtype": 5112,
      "ee": 5113,
      "fer": 5114,
      "frequency": 5115,
      "getvalue": 5116,
      "TRA": 5117,
      "multiple": 5118,
      "Ġuuid": 5119,
      "timeError": 5120,
      "aff": 5121,
      "cremental": 5122,
      "GB": 5123,
      "ĊĠĠĠĠĠĠĠĠĠĠĠĠĠĠĠĠĠĠĠĠĠĠĠĠĠĠĠĠĠĠĠĠĠĠĠĠĠĠĠĠĠĠĠĠĠĠĠĠĠĠĠĠĠĠĠĠĠĠĊĠĠĠĠĠĠĠ": 5124,
      "FIELD": 5125,
      "pixel": 5126,
      "Ġfixture": 5127,
      "\"/": 5128,
      "mm": 5129,
      "live": 5130,
      "Ġtempfile": 5131,
      "holder": 5132,
      "=\"\"": 5133,
      "ific": 5134,
      "ero": 5135,
      "Ġpag": 5136,
      "etween": 5137,
      "terms": 5138,
      "ĠPO": 5139,
      "87": 5140,
      "Ġfailure": 5141,
      "ithub": 5142,
      "Params": 5143,
      "pres": 5144,
      "ĠOAuth": 5145,
      "Only": 5146,
      "+',": 5147,
      "BE": 5148,
      "cmp": 5149,
      "syn": 5150,
      "ony": 5151,
      "expect": 5152,
      "allowed": 5153,
      "amage": 5154,
      "Ġwait": 5155,
      "Ġround": 5156,
      ")(\\": 5157,
      "tran": 5158,
      "dimen": 5159,
      "Ġmapper": 5160,
      "Ġactive": 5161,
      "activate": 5162,
      "PREFIX": 5163,
      "Ġdump": 5164,
      "Word": 5165,
      "}.": 5166,
      "lim": 5167,
      "Regex": 5168,
      "Ġunit": 5169,
      "most": 5170,
      "cessed": 5171,
      "Ġconnect": 5172,
      "ĊĠĠĠĠĠĠĠĠĠĠĠĠĠĠĠĠĠĠĠĠĠĠĠĠĠĠĠĠĠĠĠĠĠĠĠĠĠĠĠĠĠĠĠĠĠĊĠĠĠĠĠĠĠ": 5173,
      "Ġbackend": 5174,
      "acho": 5175,
      "acy": 5176,
      "ire": 5177,
      "PY": 5178,
      "CHAR": 5179,
      "HEAD": 5180,
      "details": 5181,
      "ĠByteSize": 5182,
      "cart": 5183,
      "padding": 5184,
      "infra": 5185,
      "export": 5186,
      "=\"\",": 5187,
      "ĠInvalid": 5188,
      "Cursor": 5189,
      "%%": 5190,
      "FD": 5191,
      "Ġ25": 5192,
      "audio": 5193,
      "BER": 5194,
      "gent": 5195,
      "background": 5196,
      "blue": 5197,
      "serializers": 5198,
      "46": 5199,
      "Metadata": 5200,
      "Ġinvalid": 5201,
      "Ġclasses": 5202,
      "bsolute": 5203,
      "Ġcard": 5204,
      "Ġplugin": 5205,
      "conds": 5206,
      "ĊĠĠĠĠĠĠĠĠĠĠĠĠĠĠĠĠĠĠĠĠĠĠĠĠĠĠĠĠĠĠĠĠĠĠĠĠĠĠĠĠĠĠĠĊĠĠĠĠĠĠĠ": 5207,
      "ĠDjango": 5208,
      "argtypes": 5209,
      "DIFF": 5210,
      "iso": 5211,
      "widgets": 5212,
      "Ġhashlib": 5213,
      "ĠTrans": 5214,
      "GTH": 5215,
      "plus": 5216,
      "Ġpublic": 5217,
      "cname": 5218,
      "Ġbest": 5219,
      "nome": 5220,
      "dependen": 5221,
      "chan": 5222,
      "(\"\"\"": 5223,
      "ĊĠĠĠĠĠĠĠĠĠĠĠĠĠĠĠĠĠĠĠĠĠĠĠĠĠĠĠĠĠĠĠĠĠĠĠĠĠĠĠĠĠĠĠĠĠĠĠĠĠĠĠĠĠĠĠĠĠĊĠĠĠĠĠĠĠ": 5224,
      "Collection": 5225,
      "expand": 5226,
      "math": 5227,
      "]).": 5228,
      "Ġ{},": 5229,
      "commands": 5230,
      "serializer": 5231,
      "gu": 5232,
      "resize": 5233,
      "REC": 5234,
      "tim": 5235,
      "Exp": 5236,
      "RequestHandler": 5237,
      "suffix": 5238,
      "anization": 5239,
      "Section": 5240,
      "ĠĠĠĠĊĠĠĠĠĠĠĠĠĠĠĠ": 5241,
      "Ġregion": 5242,
      "MOD": 5243,
      "difiers": 5244,
      "Ġ'':": 5245,
      "ĊĠĠĠĠĠĠĠĠĠĠĠĠĠĠĠĠĠĠĠĠĠĠĠĠĠĠĠĠĠĠĠĠĠĠĠĠĠĠĠĠĠĊĠĠĠĠĠĠĠ": 5246,
      "Ġwebob": 5247,
      "Ġangle": 5248,
      "Ġpair": 5249,
      "Const": 5250,
      "Member": 5251,
      "amount": 5252,
      "ĠStream": 5253,
      "steer": 5254,
      "47": 5255,
      "ĠĠĊĠĠĠĠĠĠĠĠĠĠĠ": 5256,
      "ĊĠĠĠĠĠĠĠĠĠĠĠĠĠĠĠĠĠĠĠĠĠĠĠĠĠĠĠĠĠĠĠĠĠĠĊĠĠĠĠĠĠĠ": 5257,
      "INI": 5258,
      "ĊĠĠĠĠĠĠĠĠĠĠĠĠĠĠĠĠĠĠĠĠĠĠĠĠĠĠĠĠĠĠĠĠĠĊĠĠĠĠĠĠĠ": 5259,
      "Ġpool": 5260,
      "HOST": 5261,
      "*(": 5262,
      "CU": 5263,
      "Len": 5264,
      "Opt": 5265,
      "ier": 5266,
      "Ġdefer": 5267,
      "Ġ{%": 5268,
      "Ġ17": 5269,
      "tifiers": 5270,
      "two": 5271,
      "tect": 5272,
      "Ġtz": 5273,
      "Ġeval": 5274,
      "ĠGe": 5275,
      "DecodeError": 5276,
      "achoir": 5277,
      "orith": 5278,
      "Ġorig": 5279,
      "Choice": 5280,
      "pto": 5281,
      "review": 5282,
      "like": 5283,
      "ssl": 5284,
      "Ġasync": 5285,
      "resses": 5286,
      "Ġauthentic": 5287,
      "Ġ'/'": 5288,
      "Hello": 5289,
      "dialog": 5290,
      "Ġexpect": 5291,
      "Ġactions": 5292,
      "destroy": 5293,
      "stubs": 5294,
      "BR": 5295,
      "STATE": 5296,
      "acc": 5297,
      "Directory": 5298,
      "SK": 5299,
      "Ġlayer": 5300,
      "Ġwrapper": 5301,
      "later": 5302,
      "ftware": 5303,
      "LY": 5304,
      "fast": 5305,
      "Ġdecor": 5306,
      "Ġlabels": 5307,
      "Ġbranch": 5308,
      "Ġ_(": 5309,
      "ĠSIG": 5310,
      "cesses": 5311,
      "compiler": 5312,
      "hand": 5313,
      "Ġpe": 5314,
      "Geometry": 5315,
      "[\\": 5316,
      "]',": 5317,
      "Ġhex": 5318,
      "Ġev": 5319,
      "Ġoperator": 5320,
      "Ġred": 5321,
      "prepare": 5322,
      "mu": 5323,
      "progress": 5324,
      "Ċĉ": 5325,
      "Display": 5326,
      "Ġcmp": 5327,
      "Ġcnt": 5328,
      "Ġactual": 5329,
      "exist": 5330,
      "Ġimages": 5331,
      "repository": 5332,
      "ĠIndexError": 5333,
      "Ġrest": 5334,
      "ĊĠĠĠĠĠĠĠĠĠĠĠĠĠĠĠĠĠĠĠĠĠĠĠĠĠĠĠĠĠĠĠĠĠĠĠĠĠĠĊĠĠĠĠĠĠĠ": 5335,
      "ĠAPI": 5336,
      "Ġformset": 5337,
      "ĠRes": 5338,
      "67": 5339,
      "UInt": 5340,
      "Ġpi": 5341,
      "ĊĠĠĠĠĠĠĠĠĠĠĠĠĠĠĠĠĠĠĠĠĠĠĠĠĠĠĠĠĠĊĠĠĠĠĠĠĠ": 5342,
      "ĠIO": 5343,
      "ĊĠĠĠĠĠĠĠĠĠĠĠĠĠĠĠĠĠĠĠĠĠĠĠĠĠĠĠĠĠĠĠĠĠĠĠĠĠĠĠĊĠĠĠĠĠĠĠ": 5344,
      "Ġdst": 5345,
      "Ġ(_": 5346,
      "Ġwords": 5347,
      "zero": 5348,
      "ĊĠĠĠĠĠĠĠĠĠĠĠĠĠĠĠĠĊĠĠĠĠĠĠĠ": 5349,
      "sist": 5350,
      "ĊĠĠĠĠĠĠĠĠĠĠĠĠĠĠĠĠĠĠĠĠĠĠĠĠĠĠĠĠĠĠĠĠĠĠĠĠĠĠĠĠĠĠĠĠĠĠĠĠĊĠĠĠĠĠĠĠ": 5351,
      "igrate": 5352,
      "notes": 5353,
      "CONF": 5354,
      "My": 5355,
      "SL": 5356,
      "ĊĠĊĠĠĠĠĠĠĠĠĠĠĠĠĠĠĠĠĠĠĠĠĠĠĠĠĠĠĠĠĠĠĠĠĠĠĠĠĠĠĠĠĠĠĠĠĠĠĠĠĠĠĠĠĠĠĠĠĠĠĠĠĠĠĠĠĠĠĠĠĠĠĠĠĠ": 5357,
      "Ġrot": 5358,
      "observer": 5359,
      "Fin": 5360,
      "Pattern": 5361,
      "Ġ\"'": 5362,
      "authors": 5363,
      "Ġids": 5364,
      "aging": 5365,
      "Ġtransaction": 5366,
      "Ġren": 5367,
      "Ġwiki": 5368,
      "ĠAs": 5369,
      "definition": 5370,
      "Stop": 5371,
      "Ġscreen": 5372,
      "uting": 5373,
      "={\"": 5374,
      "41": 5375,
      "dataset": 5376,
      "aiz": 5377,
      "ĠPublic": 5378,
      "STE": 5379,
      "getPage": 5380,
      "Ġgrid": 5381,
      "Ġlocals": 5382,
      "Ġrequire": 5383,
      "ĊĠĠĠĠĠĠĠĠĠĠĠĠĠĠĠĠĠĠĠĠĠĠĠĠĠĠĠĠĠĠĠĠĠĠĠĠĠĠĠĠĠĠĠĠĠĠĠĠĠĠĠĠĠĠĊĠĠĠĠĠĠĠ": 5384,
      "ĊĠĠĠĠĠĠĠĠĠĠĠĠĠĠĠĠĠĠĠĠĠĠĠĠĠĠĠĠĠĠĠĠĠĠĠĠĠĠĠĠĠĠĠĠĠĠĠĠĠĠĠĠĠĠĠĠĠĠĠĠĊĠĠĠĠĠĠĠ": 5385,
      "CONFI": 5386,
      "DateTimeField": 5387,
      "Ġreset": 5388,
      "Ġcy": 5389,
      "Ġcart": 5390,
      "Could": 5391,
      "('/')": 5392,
      "Ġshape": 5393,
      "dst": 5394,
      "Ġcase": 5395,
      "today": 5396,
      "ĊĠĠĠĠĠĠĠĠĠĠĠĠĠĠĠĠĠĠĠĠĠĠĠĠĠĠĠĠĊĠĠĠĠĠĠĠ": 5397,
      "LD": 5398,
      "tid": 5399,
      "Ġcounter": 5400,
      "Unicode": 5401,
      "ĠHe": 5402,
      "Ġarquivo": 5403,
      "secure": 5404,
      ":</": 5405,
      "Ġlock": 5406,
      "__',": 5407,
      "ĠMulti": 5408,
      "Storage": 5409,
      "Ġ400": 5410,
      "Unchecked": 5411,
      "Ġtraceback": 5412,
      "Ġcalled": 5413,
      "orter": 5414,
      "ĠSp": 5415,
      "128": 5416,
      "URI": 5417,
      "marker": 5418,
      "authenticated": 5419,
      "Ġstdout": 5420,
      "Ġquote": 5421,
      "Ġcatalog": 5422,
      "Note": 5423,
      "LENGTH": 5424,
      "Ob": 5425,
      "Raw": 5426,
      "Script": 5427,
      "photo": 5428,
      "requests": 5429,
      "Ġprice": 5430,
      "Ġicon": 5431,
      "ane": 5432,
      "Ġregex": 5433,
      "Ġradi": 5434,
      "ĊĠĠĠĠĠĠĠĠĠĠĠĠĠĠĠĠĠĠĠĠĠĠĠĠĠĠĠĠĠĠĠĠĠĠĠĠĠĠĠĠĠĠĠĠĠĠĠĠĠĠĠĠĠĠĠĊĠĠĠĠĠĠĠ": 5435,
      "joint": 5436,
      "DEF": 5437,
      "Top": 5438,
      "alance": 5439,
      "ĊĠĠĠĠĠĠĠĠĠĠĠĠĠĠĠĠĠĠĠĠĠĠĠĠĠĠĠĠĠĠĠĠĊĠĠĠĠĠĠĠ": 5440,
      "Ġexists": 5441,
      "ATOR": 5442,
      "tb": 5443,
      "bosity": 5444,
      "roles": 5445,
      "Ġ'*": 5446,
      "loy": 5447,
      "Ġts": 5448,
      "heel": 5449,
      "Ġamount": 5450,
      "MPLATE": 5451,
      "Simple": 5452,
      "Ġprep": 5453,
      "moved": 5454,
      "Ġmedia": 5455,
      "copyright": 5456,
      "ditional": 5457,
      "setDisabled": 5458,
      "serve": 5459,
      "timedelta": 5460,
      "jobs": 5461,
      "cos": 5462,
      "Ġcontroller": 5463,
      "components": 5464,
      "Ġowner": 5465,
      "\"',": 5466,
      "bbox": 5467,
      "logout": 5468,
      "ryMerge": 5469,
      "Middleware": 5470,
      "segment": 5471,
      "Ġhigh": 5472,
      "Ġconver": 5473,
      "Ġvol": 5474,
      "NODE": 5475,
      "Ġvariable": 5476,
      "etag": 5477,
      "Ġ/>": 5478,
      "pairs": 5479,
      "BB": 5480,
      "First": 5481,
      "rsp": 5482,
      "Ġcer": 5483,
      "Ġshell": 5484,
      "yncMode": 5485,
      "ĠHTML": 5486,
      "]{": 5487,
      "Ġfail": 5488,
      "olver": 5489,
      "layers": 5490,
      "Decoder": 5491,
      "recv": 5492,
      "Ġsqlalchemy": 5493,
      "ĠRequestContext": 5494,
      "console": 5495,
      "Ġexisting": 5496,
      "digits": 5497,
      "52": 5498,
      "Ġagent": 5499,
      "Ġ\")": 5500,
      "lime": 5501,
      "struction": 5502,
      "hexdigest": 5503,
      "friend": 5504,
      "Ġ(?": 5505,
      "Ġgeom": 5506,
      "Custom": 5507,
      "gorith": 5508,
      "robot": 5509,
      "Ġfactory": 5510,
      "COM": 5511,
      "shared": 5512,
      "Ġmatplotlib": 5513,
      "CLA": 5514,
      "Decimal": 5515,
      "Tw": 5516,
      "Ġplt": 5517,
      "vertices": 5518,
      "ĊĠĠĠĠĠĠĠĠĠĠĠĠĠĠĠĠĠĠĠĠĠĠĠĠĠĠĠĠĠĠĠĠĠĠĠĠĠĠĠĠĠĠĊĠĠĠĠĠĠĠ": 5519,
      "istri": 5520,
      "cuts": 5521,
      "Role": 5522,
      "Ġmapping": 5523,
      "ĊĠĠĠĠĠĠĠĠĠĠĠĠĠĠĠĠĠĠĠĠĠĠĠĠĠĠĠĠĠĠĠĠĠĠĠĠĠĠĠĠĠĠĠĠĠĠĠĠĠĠĠĠĠĠĠĠĠĠĠĊĠĠĠĠĠĠĠ": 5524,
      "Ġseen": 5525,
      "ientation": 5526,
      "origin": 5527,
      "Ġbit": 5528,
      "ĊĠĠĠĠĠĠĠĠĠĠĠĠĠĠĠĠĠĠĠĠĠĠĠĠĠĠĠĠĠĠĠĠĠĠĠĠĠĠĠĠĠĠĠĠĠĠĠĠĠĠĠĠĠĠĠĠĠĠĠĠĠĊĠĠĠĠĠĠĠ": 5529,
      "currence": 5530,
      "Ġsystem": 5531,
      "switch": 5532,
      "expires": 5533,
      "scalar": 5534,
      "Ġfastbinary": 5535,
      "ĊĠĠĠĠĠĠĠĠĠĠĠĠĠĠĠĠĠĠĠĠĠĠĠĠĠĠĠĠĠĠĠĠĠĠĠĠĠĠĠĠĠĠĠĠĠĠĠĠĠĠĠĠĠĠĠĠĠĠĠĠĠĠĠĠĠĠĠĊĠĠĠĠĠĠĠ": 5536,
      "ulation": 5537,
      "Ġvals": 5538,
      "OLD": 5539,
      "stead": 5540,
      "aggregate": 5541,
      "BACK": 5542,
      "Writer": 5543,
      "osite": 5544,
      "ATED": 5545,
      "?\\": 5546,
      "Ret": 5547,
      "__:": 5548,
      "chor": 5549,
      "kwds": 5550,
      "BY": 5551,
      "Grid": 5552,
      "NING": 5553,
      "}',": 5554,
      "__(*": 5555,
      "iration": 5556,
      "ModelAdmin": 5557,
      "Ġbook": 5558,
      "resolvers": 5559,
      "retry": 5560,
      "ditable": 5561,
      "antum": 5562,
      "csv": 5563,
      "ĠĠĠĠĠĠĠĠĠĠĠĠĠĠĠĠĠĠĠĠĠĠĠĠĠĠĠĠĠĠĠĠĠĠĠĠĠĠĠĠĠĠĠĠĠĠĠĠĠĠĠĠĠĠĠĠĠĠĠĠĠĠĠĠĠĠĠĠĠĠĠĠ": 5564,
      "clone": 5565,
      "ĠIf": 5566,
      "formed": 5567,
      "Single": 5568,
      "Ter": 5569,
      "hn": 5570,
      "hy": 5571,
      "Ġ\"\"\"<": 5572,
      "Policy": 5573,
      "final": 5574,
      "helpers": 5575,
      "Tex": 5576,
      "Ġ))": 5577,
      "istered": 5578,
      "ĊĠĠĠĠĠĠĠĠĠĠĠĠĠĠĠĠĠĠĠĠĠĠĠĠĠĠĠĠĠĠĊĠĠĠĠĠĠĠ": 5579,
      "Ġcontain": 5580,
      "ilities": 5581,
      "CHOICES": 5582,
      "JSON": 5583,
      "ĊĠĠĠĠĠĠĠĠĠĠĠĠĠĠĠĠĠĠĠĠĠĠĠĠĠĠĠĠĠĠĠĠĠĠĠĠĠĠĠĠĠĠĠĠĠĠĠĠĠĠĠĠĠĠĠĠĠĠĠĠĠĠĠĠĠĊĠĠĠĠĠĠĠ": 5584,
      "Ġrc": 5585,
      "Track": 5586,
      "Combo": 5587,
      "Ġbackground": 5588,
      "[(": 5589,
      "Ġfetch": 5590,
      "ading": 5591,
      "ifest": 5592,
      "RED": 5593,
      "Shop": 5594,
      "================": 5595,
      "Ġrelease": 5596,
      "heap": 5597,
      "ĠĠĠĠĠĠĠĠĠĠĠĠĠĠĠĠĠĠĠĠĠĠĠĠĠĠĠĠĠĠĠ": 5598,
      "IME": 5599,
      "Ġcustom": 5600,
      "Ġplatform": 5601,
      "Ġscheme": 5602,
      "Ġexample": 5603,
      "[%": 5604,
      "Ġrequested": 5605,
      "translate": 5606,
      "Mark": 5607,
      "Ġscore": 5608,
      "ĠFake": 5609,
      "ĠOpen": 5610,
      "statement": 5611,
      "Seri": 5612,
      "Items": 5613,
      "ered": 5614,
      "dicate": 5615,
      "ĠNS": 5616,
      "validation": 5617,
      "Component": 5618,
      "Ġcenter": 5619,
      "ĠClient": 5620,
      "should": 5621,
      "blocks": 5622,
      "Double": 5623,
      "ighb": 5624,
      "Ġcolumns": 5625,
      "Ġstat": 5626,
      "merge": 5627,
      "ingerprint": 5628,
      "UES": 5629,
      "bon": 5630,
      "Ġcell": 5631,
      "Ġpix": 5632,
      "ĊĠĠĠĠĠĠĠĠĠĠĠĠĠĠĠĠĠĠĠĠĠĠĠĠĠĠĠĠĠĠĠĠĠĠĠĠĠĠĠĠĠĠĠĠĠĠĠĠĠĠĠĠĠĠĠĠĠĠĠĠĠĠĠĠĊĠĠĠĠĠĠĠ": 5633,
      "Ġ{{": 5634,
      "Cons": 5635,
      "curr": 5636,
      "Loop": 5637,
      "packages": 5638,
      "eded": 5639,
      "itor": 5640,
      "ither": 5641,
      "pret": 5642,
      "cloud": 5643,
      "gd": 5644,
      "Ġfig": 5645,
      "ĠProject": 5646,
      "ĠChar": 5647,
      "deg": 5648,
      "saved": 5649,
      "Ġunder": 5650,
      "yntaxError": 5651,
      "ality": 5652,
      "phase": 5653,
      "Account": 5654,
      "Ali": 5655,
      "Bind": 5656,
      "WI": 5657,
      "Equals": 5658,
      "Bool": 5659,
      "5678": 5660,
      "}/": 5661,
      "Ġcancel": 5662,
      "acle": 5663,
      "pkg": 5664,
      "(?:": 5665,
      "PH": 5666,
      "alle": 5667,
      "Ġsome": 5668,
      "functions": 5669,
      "ggle": 5670,
      "Lim": 5671,
      "Ġaliases": 5672,
      "Ġwriter": 5673,
      "Ġhachoir": 5674,
      "products": 5675,
      "Failure": 5676,
      "Sup": 5677,
      "embed": 5678,
      "Database": 5679,
      ")],": 5680,
      "ools": 5681,
      "LOCK": 5682,
      "uffff": 5683,
      "Ġusage": 5684,
      "ower": 5685,
      "Ġgiven": 5686,
      "metrics": 5687,
      "lade": 5688,
      "ippe": 5689,
      "ĠOS": 5690,
      "compress": 5691,
      "ĠGeneral": 5692,
      "ĠFLAGS": 5693,
      "cision": 5694,
      "ones": 5695,
      "prod": 5696,
      "SES": 5697,
      "ĊĠĠĠĠĠĠĠĠĠĠĠĠĠĠĠĠĠĠĠĠĠĠĠĠĠĠĠĠĠĊĠ": 5698,
      "frames": 5699,
      "selength": 5700,
      "mesh": 5701,
      "ulselength": 5702,
      "outer": 5703,
      "Vertex": 5704,
      "+'": 5705,
      "trig": 5706,
      "declared": 5707,
      "Ġappend": 5708,
      "')))": 5709,
      "ipping": 5710,
      "Ġalt": 5711,
      "Uti": 5712,
      "Ġmask": 5713,
      "ird": 5714,
      "Temp": 5715,
      "Ġ..": 5716,
      "Ġcm": 5717,
      "agic": 5718,
      "irth": 5719,
      "ĊĠĠĠĠĠĠĠĠĠĠĠĠĠĠĠĠĠĠĠĠĠĠĠĠĠĠĠĠĠĠĠĠĠĠĠĠĠĠĠĠĠĠĠĠĠĠĠĠĠĠĠĠĠĠĠĠĠĠĠĠĠĠĠĠĠĠĠĠĠĠĠĠĠĠĠĠĠĠĠĠĠ": 5720,
      "MPTY": 5721,
      "Factor": 5722,
      "('--": 5723,
      "units": 5724,
      "ĠCP": 5725,
      "clusive": 5726,
      "Flag": 5727,
      "fault": 5728,
      "dep": 5729,
      "Ġexpr": 5730,
      "ĊĠĠĠĠĠĠĠĠĠĠĠĠĠĠĠĠĠĠĠĠĠĠĠĠĠĠĠĠĠĠĠĠĠĠĠĠĠĠĠĠĠĠĠĠĠĠĠĠĠĠĠĠĠĠĠĠĠĠĠĠĠĠĊĠĠĠĠĠĠĠ": 5731,
      "START": 5732,
      "cuda": 5733,
      "lists": 5734,
      "clip": 5735,
      "Ġsequence": 5736,
      "Ġdialog": 5737,
      "UND": 5738,
      "Ġhelper": 5739,
      "boolean": 5740,
      "ĠDecimal": 5741,
      "EXT": 5742,
      "Ġeasyshop": 5743,
      "/\"": 5744,
      "Br": 5745,
      "ros": 5746,
      "usec": 5747,
      "ĠUnion": 5748,
      "SCRIPT": 5749,
      "road": 5750,
      "agger": 5751,
      "ressed": 5752,
      "packet": 5753,
      "ModelForm": 5754,
      "UI": 5755,
      "asis": 5756,
      "trl": 5757,
      "Ġbbox": 5758,
      "Ġ102": 5759,
      "Ġden": 5760,
      "raise": 5761,
      "tected": 5762,
      "aps": 5763,
      "Ġhttplib": 5764,
      "MT": 5765,
      "]])": 5766,
      "Ġupload": 5767,
      "clar": 5768,
      "Ġentries": 5769,
      "Ġseconds": 5770,
      "Ġcurr": 5771,
      "GEOS": 5772,
      "ĊĠĠĠĠĠĠĠĠĠĠĠĠĠĠĠĠĠĠĠĠĠĠĠĊĠĠĠĠĠĠĠĠĠĠĠĠĠĠĠĠĠĠĠĠĠĠĠĊĠĠĠĠĠĠĠĠĠĠĠĠĠĠĠĠĠĠĠĠĠĠĠĊĠĠĠĠĠĠĠĠĠĠĠĠĠĠĠĠĠĠĠĠĠĠĠĊĠĠĠĠĠĠĠĠĠĠĠĠĠĠĠĠĠĠĠĠĠĠĠĊĠĠĠĠĠĠĠĠĠĠĠĠĠĠĠĠĠĠĠĠĠĠĠĊĠĠĠĠĠĠĠĠĠĠĠĠĠĠĠĠĠĠĠĠĠĠĠĊĠĠĠĠĠĠĠĠĠĠĠĠĠĠĠĠĠĠĠĠĠĠĠ": 5773,
      "flake": 5774,
      "84": 5775,
      "failed": 5776,
      "Ġcr": 5777,
      "Ġinsert": 5778,
      "Ġyaml": 5779,
      "lane": 5780,
      "floor": 5781,
      "pted": 5782,
      "ĠBu": 5783,
      "ldap": 5784,
      "warnings": 5785,
      "CI": 5786,
      "camera": 5787,
      "legate": 5788,
      "parator": 5789,
      "\"})": 5790,
      "eg": 5791,
      "insi": 5792,
      "Ġlst": 5793,
      "Norm": 5794,
      "ĊĠĠĠĠĠĠĠĠĠĠĠĠĠĠĠĠĠĠĠĠĠĠĠĠĠĠĠĠĠĠĠĠĠĠĠĠĠĠĠĠĠĠĠĠĠĠĠĠĠĠĠĠĠĠĠĠĠĠĠĠĠĠĠĠĠĠĊĠĠĠĠĠĠĠ": 5795,
      "Ġtab": 5796,
      "ĠCategory": 5797,
      "avg": 5798,
      "nowflake": 5799,
      "Atom": 5800,
      "horizontal": 5801,
      "room": 5802,
      "ĠPunctuation": 5803,
      "hosts": 5804,
      "ifier": 5805,
      "Ġpid": 5806,
      "exact": 5807,
      "scene": 5808,
      "Ġmethods": 5809,
      "ĠQuery": 5810,
      "Over": 5811,
      "uses": 5812,
      "Ġflag": 5813,
      "signed": 5814,
      "ification": 5815,
      "Ġexceptions": 5816,
      "EW": 5817,
      "controls": 5818,
      "ysql": 5819,
      "VALUE": 5820,
      "ĠGroup": 5821,
      "LOC": 5822,
      "RIGHT": 5823,
      "BASE": 5824,
      "retri": 5825,
      "ced": 5826,
      "Ġprogram": 5827,
      "cycle": 5828,
      "SU": 5829,
      "customer": 5830,
      "qt": 5831,
      "Properties": 5832,
      "Ġrecords": 5833,
      "Ġawait": 5834,
      "Ġfilenames": 5835,
      "archive": 5836,
      "ĠIterable": 5837,
      "ook": 5838,
      "ĊĠĠĠĠĠĠĠĠĠĠĠĊĠĠĠĠĊĠĠĠ": 5839,
      "celer": 5840,
      "001": 5841,
      "ĊĠĠĠĠĠĠĠĠĠĠĠĠĠĠĠĠĠĠĠĠĠĠĠĠĠĠĠĠĠĠĠĠĠĠĠĠĠĠĠĠĠĠĠĠĠĠĠĠĠĠĠĠĠĠĠĠĠĠĠĠĠĠĠĠĠĠĠĠĠĠĠĠĠĊĠĠĠĠĠĠĠ": 5842,
      "ĠSimple": 5843,
      "Ġsent": 5844,
      "Ġlex": 5845,
      "LS": 5846,
      "kspace": 5847,
      "xpath": 5848,
      "readline": 5849,
      "Ġtile": 5850,
      "snapshot": 5851,
      "Basic": 5852,
      "Handle": 5853,
      "ĠĊĠĠĠĠĠĠĠĠĠĠĠĠĠĠĠĠĠĠĠ": 5854,
      "ĊĠĠĠĠĠĠĠĠĠĠĠĠĠĠĠĠĠĠĠĠĠĠĠĠĠĠĠĠĠĠĠĠĠĠĠĠĠĠĠĠĠĠĠĠĠĠĠĠĠĠĠĠĠĠĠĠĠĠĠĠĠĠĠĠĠĠĠĠĊĠĠĠĠĠĠĠ": 5855,
      "ffff": 5856,
      "formatter": 5857,
      "KEN": 5858,
      "blog": 5859,
      "ĠGE": 5860,
      "strict": 5861,
      "ORDER": 5862,
      "rozenset": 5863,
      "Cell": 5864,
      "baz": 5865,
      "ĠTask": 5866,
      "TEMPLATE": 5867,
      "subscribe": 5868,
      "([^": 5869,
      "structure": 5870,
      "Bit": 5871,
      "logs": 5872,
      "xi": 5873,
      "Ġsymbol": 5874,
      "ĠAn": 5875,
      "Ġroute": 5876,
      "brary": 5877,
      "ĠCommand": 5878,
      "Ġsq": 5879,
      "setting": 5880,
      "isdir": 5881,
      "shell": 5882,
      "ĊĠĠĠĠĠĠĠĠĠĠĠĠĠĠĠĠĠĠĠĠĠĠĠĠĠĠĠĠĠĠĠĠĠĠĠĠĠĠĠĠĠĠĠĠĠĠĠĠĠĠĠĠĠĠĠĠĠĠĠĠĠĠĠĊĠĠĠĠĠĠĠ": 5883,
      "FieldSet": 5884,
      "tend": 5885,
      "LIC": 5886,
      "come": 5887,
      "perly": 5888,
      "dence": 5889,
      "signals": 5890,
      "Ġpublished": 5891,
      "Registry": 5892,
      "crypt": 5893,
      "mpro": 5894,
      "Ġ*=": 5895,
      "angles": 5896,
      "Ġpkg": 5897,
      "uplicate": 5898,
      "wk": 5899,
      "dian": 5900,
      "Ġbin": 5901,
      "vertex": 5902,
      "Ġmer": 5903,
      "ĠIs": 5904,
      "otor": 5905,
      "backends": 5906,
      "So": 5907,
      "tar": 5908,
      "ĠAS": 5909,
      "basename": 5910,
      "rong": 5911,
      "scripts": 5912,
      "Ġinner": 5913,
      "added": 5914,
      "ĊĠĠĠĠĠĠĠĠĠĠĠĠĠĠĠĠĠĠĠĠĠĠĠĠĠĠĊĠĠĠĠĠĠĠ": 5915,
      "Ġcontrol": 5916,
      "ĠLoc": 5917,
      "hostname": 5918,
      "ĊĊĊĠĠĠĠĠĠĠ": 5919,
      "correct": 5920,
      "Matrix": 5921,
      "ĊĊĠĠĠĠĠĠĠĠĠĠĠĠĠĠĠĠĠĠĠĠĠĠĠ": 5922,
      "Ġvec": 5923,
      "Ġ':": 5924,
      "queries": 5925,
      "Ġkeyword": 5926,
      "Ġxmlns": 5927,
      "SSL": 5928,
      "[]\",": 5929,
      "Site": 5930,
      "sy": 5931,
      "walk": 5932,
      "Ġcannot": 5933,
      "Ġ42": 5934,
      "ACHE": 5935,
      "changes": 5936,
      "ĊĊĠĠĠĠĠĠĠĠĠĠĠĠĠĠĠĠĠĠĠĠĠĠĠĠĠĠĠĠĠĠĠĠĠĠĠĠĠĠĠĠĠĠĠĠĠĠĠĠĠĠĠĠĠĠĠĠĠĠĠĠĠĠĠĠĠĠĠĠĠĠĠĠĠĠĠĠ": 5937,
      "epcopy": 5938,
      "70": 5939,
      "CB": 5940,
      "docker": 5941,
      "Ġinline": 5942,
      "ĠCre": 5943,
      "META": 5944,
      "ĊĠĠĠĠĠĠĠĠĠĠĠĠĠĠĠĠĠĠĠĠĠĠĠĠĠĠĠĠĠĠĠĠĠĠĠĠĠĠĠĠĠĠĠĠĠĠĠĠĠĠĠĠĠĠĠĠĠĠĠĠĠĠĠĠĠĠĠĠĠĠĠĠĠĠĠĠĠĠĊĠĠĠĠĠĠĠĠĠĠĠĠĠĠĠĠĠĠĠĠĠĠĠĠĠĠĠĠĠĠĠĠĠĠĠĠĠĠĠĠĠĠĠĠĠĠĠĠĠĠĠĠĠĠĠĠĠĠĠĠĠĠĠĠĠĠĠĠĠĠĠĠĠĠĠĠĠ": 5945,
      "anchor": 5946,
      "ĠRuntimeError": 5947,
      "54": 5948,
      "Ġci": 5949,
      "Ġextract": 5950,
      "Ġtor": 5951,
      "mous": 5952,
      "Exec": 5953,
      "facebook": 5954,
      "SubElement": 5955,
      "constructor": 5956,
      "EB": 5957,
      "PC": 5958,
      "bility": 5959,
      "Ġplace": 5960,
      "utor": 5961,
      "Ġwant": 5962,
      "neg": 5963,
      "Ġcustomer": 5964,
      "ĊĠĊĠĠĠĠĠĠĠĠĠĠĠĠĠĠĠĠĠĠĠĠĠĠĠĠĠĠĠĠĠĠĠĠĠĠĠĠĠĠĠĠĠĠĠĠĠĠĠĠĠĠĠĠĠĠĠĠĠĠĠĠĠĠĠĠĠĠĠĠĠĠĠĠĠĠĠĠ": 5965,
      "cert": 5966,
      "83": 5967,
      "ĠĠĠĠĠĠĠĠĠĠĠĠĠĠĠĠĠĠĠĠĠĠĠĠĠĠĠĠĠĠĠĠĠĠĠ": 5968,
      "alloc": 5969,
      "Ġrequires": 5970,
      "Ġmac": 5971,
      "dices": 5972,
      "Ġsetting": 5973,
      "COUN": 5974,
      "ĠĠĠĠĠĊĠĠĠĠĠĠĠĠĠĠĠ": 5975,
      "precation": 5976,
      "Ġentities": 5977,
      "pie": 5978,
      "cleanup": 5979,
      "shipping": 5980,
      "GER": 5981,
      "materi": 5982,
      "ving": 5983,
      "verify": 5984,
      "assertIs": 5985,
      "more": 5986,
      "ĊĠĠĠĠĠĠĠĠĠĠĠĠĠĠĠĠĠĠĠĠĠĠĠĠĠĠĠĠĠĠĠĠĠĠĠĠĠĠĠĠĠĠĠĠĠĠĠĠĠĠĠĠĠĠĠĠĠĠĠĠĠĠĠĠĠĠĠĠĠĠĠĠĠĠĊĠĠĠĠĠĠĠĠĠĠĠĠĠĠĠĠĠĠĠĠĠĠĠĠĠĠĠĠĠĠĠĠĠĠĠĠĠĠĠĠĠĠĠĠĠĠĠĠĠĠĠĠĠĠĠĠĠĠĠĠĠĠĠĠĠĠĠĠĠ": 5987,
      "fully": 5988,
      "Ġnormalize": 5989,
      "crop": 5990,
      "().__": 5991,
      "touch": 5992,
      "Ġoff": 5993,
      "ĠĠĠĠĠĠĊĠĠĠĠĠĠĠĠĠĠĠ": 5994,
      "boot": 5995,
      "pause": 5996,
      "79": 5997,
      "Ġap": 5998,
      "Ġgener": 5999,
      "uise": 6000,
      "bling": 6001,
      "mocker": 6002,
      "+\"": 6003,
      "?',": 6004,
      "peat": 6005,
      "annotate": 6006,
      "ctypes": 6007,
      "cursive": 6008,
      "tables": 6009,
      "locals": 6010,
      "olygon": 6011,
      "ationships": 6012,
      "Ġnx": 6013,
      "Channel": 6014,
      "coords": 6015,
      "][\"": 6016,
      "cwd": 6017,
      "orig": 6018,
      "()])": 6019,
      "assertContains": 6020,
      "Ġprob": 6021,
      "Ġsen": 6022,
      "Ġzope": 6023,
      "DIA": 6024,
      "CONFIG": 6025,
      ":\")": 6026,
      "acl": 6027,
      "srid": 6028,
      "raft": 6029,
      "Ġdirect": 6030,
      "Ġqn": 6031,
      "COMM": 6032,
      "={}": 6033,
      "Ġgroups": 6034,
      "effect": 6035,
      "WARE": 6036,
      "89": 6037,
      "xA": 6038,
      "lide": 6039,
      "ĊĠĠĠĠĊ": 6040,
      "decorators": 6041,
      "Pay": 6042,
      "rstrip": 6043,
      "descriptor": 6044,
      "major": 6045,
      "trial": 6046,
      "specs": 6047,
      "Ġanim": 6048,
      "cv": 6049,
      "cen": 6050,
      "('#": 6051,
      "Container": 6052,
      "REAM": 6053,
      "ĠAttr": 6054,
      "69": 6055,
      "=[\"": 6056,
      "Write": 6057,
      "Work": 6058,
      "=''):": 6059,
      "renderer": 6060,
      ">\")": 6061,
      "Sizer": 6062,
      "stone": 6063,
      "Ġ_,": 6064,
      "ĠMo": 6065,
      "ATTR": 6066,
      "portal": 6067,
      "Ġcanvas": 6068,
      "CUR": 6069,
      "Ġfname": 6070,
      "siz": 6071,
      "disc": 6072,
      "ERY": 6073,
      "Ġexecute": 6074,
      "rupt": 6075,
      "Empty": 6076,
      "decimal": 6077,
      "executable": 6078,
      "Tuple": 6079,
      "power": 6080,
      "ĠInt": 6081,
      "TIVE": 6082,
      "services": 6083,
      "pressure": 6084,
      "taobao": 6085,
      "Ġ?": 6086,
      "rex": 6087,
      "ĊĠĠĠĠĠĠĠĠĠĠĠĠĠĠĠĠĠĠĠĠĠĠĠĠĠĠĠĠĠĠĠĠĠĠĠĠĠĠĠĠĠĠĠĠĠĠĠĠĠĠĠĠĠĠĠĠĠĠĠĠĠĠĠĠĠĠĠĠĠĠĠĊĠĠĠĠĠĠĠ": 6088,
      "listdir": 6089,
      "Ġxs": 6090,
      "templates": 6091,
      "DataFrame": 6092,
      "randint": 6093,
      "finished": 6094,
      "COLOR": 6095,
      "lexer": 6096,
      "ball": 6097,
      "ko": 6098,
      "watch": 6099,
      "Ġfixed": 6100,
      "ACC": 6101,
      "BOOL": 6102,
      "Multiple": 6103,
      "Operation": 6104,
      "javascript": 6105,
      ";'": 6106,
      "ĊĠĠĠĠĠĠĠĠĠĠĠĠĠĠĠĠĠĠĠĠĊĠĠĠĠĠĠĠ": 6107,
      "lied": 6108,
      "ĠCheck": 6109,
      "Ġthan": 6110,
      "Ġgame": 6111,
      "subscription": 6112,
      "stmt": 6113,
      "ĠBit": 6114,
      "Left": 6115,
      "ĠAddon": 6116,
      "ĠPoint": 6117,
      "numpy": 6118,
      "Ġ64": 6119,
      "onical": 6120,
      "Ġcs": 6121,
      "Ġmenu": 6122,
      "Ġonline": 6123,
      "MAN": 6124,
      "UD": 6125,
      "vance": 6126,
      "Ġsym": 6127,
      "ocus": 6128,
      "ĊĠĠĠĠĠĠĠĠĠĠĠĠĠĠĠĠĠĠĠĠĠĠĠĠĠĠĠĊĠĠĠĠĠĠĠĠĠĠĠ": 6129,
      "DEN": 6130,
      "Card": 6131,
      "Ġtouch": 6132,
      "]+',": 6133,
      "2022": 6134,
      "grade": 6135,
      "gorithm": 6136,
      "ITE": 6137,
      "ĊĠĠĠĠĠĠĠĠĠĠĠĠĠĠĠĠĠĠĠĠĠĠĠĠĠĠĠĠĠĠĠĠĠĠĠĠĠĠĠĠĠĠĠĠĠĠĠĠĠĠĠĠĠĠĠĠĠĠĠĠĠĠĠĠĠĠĠĠĠĠĊĠĠĠĠĠĠĠ": 6138,
      "Ġdecimal": 6139,
      "ĊĠĠĠĠĠĠĠĠĠĠĠĠĠĠĠĠĠĠĠĠĠĠĠĠĠĠĠĠĠĠĠĠĠĠĠĠĠĠĠĠĠĠĠĠĠĠĠĠĠĠĠĠĠĠĠĠĠĠĠĠĠĠĠĠĠĠĠĠĠĠĠĠĠĠĠĠĠĠĠĠĠĠ": 6140,
      "Signature": 6141,
      "once": 6142,
      "Ġface": 6143,
      "ĠDoc": 6144,
      "ĠJSON": 6145,
      "servable": 6146,
      "SY": 6147,
      "mtime": 6148,
      "',)": 6149,
      "Ġanaly": 6150,
      "identifiers": 6151,
      "twitter": 6152,
      "IF": 6153,
      "Ġdy": 6154,
      "Ġdone": 6155,
      "{}": 6156,
      "Ġievent": 6157,
      "ssh": 6158,
      "illi": 6159,
      "Ġlfs": 6160,
      "APP": 6161,
      "addons": 6162,
      "Ġmemcache": 6163,
      "Main": 6164,
      "QMessageBox": 6165,
      "acket": 6166,
      "Ġprovided": 6167,
      "iterator": 6168,
      "chron": 6169,
      "LEFT": 6170,
      "ARY": 6171,
      "Ġtables": 6172,
      "Ġordering": 6173,
      "49": 6174,
      "panel": 6175,
      "ĊĠĠĠĠĠĠĠĠĠĠĠĠĠĠĠĠĠĠĠĠĠĠĠĠĠĠĠĠĠĠĠĠĠĠĠĠĠĠĠĠĠĠĠĠĠĠĠĠĠĠĠĠĠĠĠĠĠĠĠĠĠĠĠĠĠĠĠĠĠĊĠĠĠĠĠĠĠ": 6176,
      "Ġblob": 6177,
      "ĠCO": 6178,
      "counts": 6179,
      "metric": 6180,
      "MAC": 6181,
      "Ġitertools": 6182,
      "*\\": 6183,
      "Ġ(-": 6184,
      "utter": 6185,
      "dif": 6186,
      "cluster": 6187,
      "disabled": 6188,
      "SHA": 6189,
      "CHECK": 6190,
      "dy": 6191,
      "alf": 6192,
      "utdown": 6193,
      "clause": 6194,
      "ĠDo": 6195,
      "RECT": 6196,
      "projects": 6197,
      "Transform": 6198,
      "GRE": 6199,
      "Ġstub": 6200,
      "ĠSo": 6201,
      "Ġattach": 6202,
      "Ġsuffix": 6203,
      "57": 6204,
      "vow": 6205,
      "Ġio": 6206,
      "valor": 6207,
      "ĠSite": 6208,
      "Ġspecified": 6209,
      "CD": 6210,
      "dc": 6211,
      "ather": 6212,
      "Ġstderr": 6213,
      "scroll": 6214,
      "ĠĠĠĠĠĠĠĠĠĠĠĠĠĠĠĠĠĠĠĠĠĠĠĠĠ": 6215,
      "Settings": 6216,
      "Configured": 6217,
      "unctools": 6218,
      "Dlg": 6219,
      "pus": 6220,
      "Ġul": 6221,
      "Ġsv": 6222,
      "Ġdom": 6223,
      "constraint": 6224,
      "scriber": 6225,
      "ROOT": 6226,
      "ĊĊĠĠĠĠĠĠĠĠĠĠĠĠĠĠĠĠĠĠĠĠĠĠĠĠĠĠĠĠĠĠĠĠĠĠĠĠĠĠĠĠĠĠĠĠĠĠĠĠĠĠĠĠĠĠĠĠĠĠĠĠĠĠĠĠĠĠĠĠĠĠĠĠĠĠĠĠĠĠĠ": 6227,
      "ĊĊĠĠĠĠĠĠĠĠĠĠĠĠĠĠĠĠĠĠĠĠĠĠĠĠĠĠĠĠĠĠĠĠĠĠĠĠĠĠĠĠĠĠĠĠĠĠĠĠĠĠĠĠĠĠĠĠĠĠĠĠĠĠĠĠĠĠĠĠĠĠĠĠĠĠĠĠĠĠ": 6228,
      "ĠcreateFields": 6229,
      "publish": 6230,
      "Inline": 6231,
      "ĠAbsolute": 6232,
      "calls": 6233,
      "matches": 6234,
      "constants": 6235,
      "Bits": 6236,
      "lean": 6237,
      "Ġbl": 6238,
      "abilities": 6239,
      "tence": 6240,
      "Keys": 6241,
      "DIS": 6242,
      "encoder": 6243,
      "Chart": 6244,
      "orization": 6245,
      "Part": 6246,
      "inate": 6247,
      "antity": 6248,
      "Ġcols": 6249,
      "integr": 6250,
      "cf": 6251,
      "reet": 6252,
      "ĠCall": 6253,
      "Ġfrozenset": 6254,
      "Ġpriority": 6255,
      "ĠTuple": 6256,
      "FieldMap": 6257,
      "COMP": 6258,
      "complex": 6259,
      "shortcuts": 6260,
      "]\\": 6261,
      "lations": 6262,
      "asure": 6263,
      "ĠAl": 6264,
      "Ġ|=": 6265,
      "TOKEN": 6266,
      "Load": 6267,
      "Ġmodules": 6268,
      "published": 6269,
      "PROTO": 6270,
      "Ġworker": 6271,
      "wb": 6272,
      "osable": 6273,
      "****": 6274,
      "Ġdistri": 6275,
      "ipeline": 6276,
      "bra": 6277,
      "mc": 6278,
      "setitem": 6279,
      "ĠNull": 6280,
      "ĊĠĠĠĠĠĠĠĠĠĠĠĠĠĠĠĠĠĠĠĠĠĠĠĠĠĠĠĠĠĠĠĠĠĠĠĠĠĠĠĠĠĠĠĠĠĠĠĠĠĠĠĠĠĠĠĠĠĠĠĠĠĠĠĠĠĠĠĠĠĠĠĠĠĠĠĠĠĠĠĠĠĠĠ": 6281,
      "lette": 6282,
      "plural": 6283,
      "Return": 6284,
      "SD": 6285,
      "bounds": 6286,
      "Foo": 6287,
      "ote": 6288,
      "vol": 6289,
      "stroke": 6290,
      "Files": 6291,
      "\"><": 6292,
      "Memory": 6293,
      "Act": 6294,
      "browser": 6295,
      "Ġ28": 6296,
      "Ġcoord": 6297,
      "special": 6298,
      "selector": 6299,
      "Ġlocale": 6300,
      "sin": 6301,
      "Ġ^": 6302,
      "Ġlatest": 6303,
      "mach": 6304,
      "Ġagg": 6305,
      "ĊĊĠĠĠĠĠĠĠĠĠĠĠĠĠĠĠĠĠĠĠĠĠĠĠĠĠĠĠĠĠĠĠĠĠĠĠĠĠĠĠĠĠĠĠĠĠĠĠĠĠĠĠĠĠĠĠĠĠĠĠĠĠĠĠĠĠĠĠĠĠĠĠĠĠĠĠ": 6306,
      "Cap": 6307,
      "Root": 6308,
      "du": 6309,
      "nums": 6310,
      "ICE": 6311,
      "networks": 6312,
      "Ġfix": 6313,
      "traceback": 6314,
      "ries": 6315,
      "assertOutput": 6316,
      "parsed": 6317,
      "TESTFN": 6318,
      "conver": 6319,
      "Ġstroke": 6320,
      "pointer": 6321,
      "ĠPerson": 6322,
      "FieldMapB": 6323,
      "nx": 6324,
      "Ġinstead": 6325,
      "Save": 6326,
      "seed": 6327,
      "lyph": 6328,
      "Ġloop": 6329,
      "=_('": 6330,
      "ysical": 6331,
      "ef": 6332,
      "tric": 6333,
      "Ġdx": 6334,
      "ished": 6335,
      "city": 6336,
      "ha": 6337,
      "Ġfs": 6338,
      "getAttribute": 6339,
      "spawn": 6340,
      "period": 6341,
      "rowse": 6342,
      "Modified": 6343,
      "Ġmimetype": 6344,
      "Ġpainter": 6345,
      "CREATE": 6346,
      "MD": 6347,
      "Ġaccept": 6348,
      "Objects": 6349,
      "Positive": 6350,
      "floating": 6351,
      "vides": 6352,
      "pu": 6353,
      "router": 6354,
      "cover": 6355,
      "Ġrate": 6356,
      "posed": 6357,
      "Ġep": 6358,
      "ERS": 6359,
      "aker": 6360,
      "Ġperson": 6361,
      "Ġinterval": 6362,
      "Web": 6363,
      "Ġarticle": 6364,
      "Ġphoto": 6365,
      "assertNot": 6366,
      "props": 6367,
      "Enter": 6368,
      "Deferred": 6369,
      "53": 6370,
      "]'": 6371,
      "Ġ[-": 6372,
      "Ġ_\"": 6373,
      "ĠToken": 6374,
      "iform": 6375,
      "Ġteam": 6376,
      "whitespace": 6377,
      "Fl": 6378,
      "Ġoc": 6379,
      "atial": 6380,
      "Ġrs": 6381,
      "ĊĠĠĠĠĠĠĠĠĠĠĠĠĠĠĠĠĠĠĠĠĠĠĠĠĠĠĠĠĠĠĠĠĠĠĠĠĠĠĠĠĠĠĠĠĠĠĠĠĠĠĠĠĊĠ": 6382,
      "lege": 6383,
      "Ġvm": 6384,
      "Ġmarkdown": 6385,
      "ULE": 6386,
      "spam": 6387,
      "Ġ[[": 6388,
      "etail": 6389,
      "ĊĠĠĠĠĠĠĠĠĠĠĠĠĠĠĠĠĠĠĠĠĠĠĠĠĠĊĠĠĠĠĠĠĠ": 6390,
      "Ġenable": 6391,
      "Ġborder": 6392,
      "keyword": 6393,
      "lain": 6394,
      "FB": 6395,
      "eve": 6396,
      "redis": 6397,
      "met": 6398,
      "STREAM": 6399,
      "Pool": 6400,
      "brid": 6401,
      "nonce": 6402,
      "cid": 6403,
      "Login": 6404,
      "Ġchoice": 6405,
      "plugins": 6406,
      "+\\": 6407,
      "AI": 6408,
      "flip": 6409,
      "Ġprogress": 6410,
      "ĠDB": 6411,
      "ToMany": 6412,
      "Ġtick": 6413,
      "'\")": 6414,
      "rv": 6415,
      "Ġchart": 6416,
      "ĠRepo": 6417,
      "ĠFeatureView": 6418,
      "ritten": 6419,
      "ĠIOError": 6420,
      "ea": 6421,
      "strong": 6422,
      "creator": 6423,
      "ĠArticle": 6424,
      "attachment": 6425,
      "ffici": 6426,
      "ĠContentType": 6427,
      "childNodes": 6428,
      "Space": 6429,
      "CR": 6430,
      "alert": 6431,
      "Ġsingle": 6432,
      "ison": 6433,
      "ĠUp": 6434,
      "raction": 6435,
      "abstract": 6436,
      "ĠĠĠĠĠĠĠĠĠĠĠĠĠĠĠĠĠĠĠĠĠĠĠĠĠĠ": 6437,
      "Ġalpha": 6438,
      "]],": 6439,
      "define": 6440,
      "ĊĠĠĠĠĠĠĠĠĠĠĠĠĠĠĠĠĊĠĠĠĠĠĠĠĠĠĠĠĠĠĠĠ": 6441,
      "assertNo": 6442,
      "=\"/": 6443,
      "ĠMAX": 6444,
      "aws": 6445,
      "ifFormat": 6446,
      "character": 6447,
      "Runner": 6448,
      "400": 6449,
      "_)):": 6450,
      "github": 6451,
      "}\",": 6452,
      "),(": 6453,
      "prompt": 6454,
      "ĠTestCase": 6455,
      "Packet": 6456,
      "'//": 6457,
      ",%": 6458,
      "Socket": 6459,
      "pand": 6460,
      "Ġkeep": 6461,
      "Ġsim": 6462,
      "setUp": 6463,
      "Ġ``": 6464,
      "ĠSubElement": 6465,
      "guid": 6466,
      "Ġ()": 6467,
      "UTF": 6468,
      "CAM": 6469,
      "pm": 6470,
      "writeString": 6471,
      "Compiler": 6472,
      "pw": 6473,
      "decoder": 6474,
      "Ġtwo": 6475,
      "!\")": 6476,
      "Other": 6477,
      "Ġeach": 6478,
      "ĠImpro": 6479,
      "normalized": 6480,
      "diffe": 6481,
      "igration": 6482,
      "perlyConfigured": 6483,
      "AMP": 6484,
      "Pa": 6485,
      "Ġtool": 6486,
      "figure": 6487,
      "ĠWe": 6488,
      "Byte": 6489,
      "Ġcomponents": 6490,
      "Agent": 6491,
      "UCT": 6492,
      "Vector": 6493,
      "fli": 6494,
      "tf": 6495,
      "ĊĠĊĠĠĠĠĠĠĠĠĠĠĠĠĠĠĠĠĠĠĠĠĠĠĠĠĠĠĠĠĠĠĠĠĠĠĠĠĠĠĠĠĠĠĠĠĠĠĠĠĠĠĠĠĠĠĠĠĠĠĠĠĠĠĠĠĠĠĠĠĠĠ": 6496,
      "fieldname": 6497,
      "ĠConnector": 6498,
      "ways": 6499,
      "kernel": 6500,
      "ba": 6501,
      "Ġfolder": 6502,
      "xhtml": 6503,
      "ront": 6504,
      "GROUP": 6505,
      "ĠSIGNAL": 6506,
      "ĠAttrMap": 6507,
      "CAR": 6508,
      "Ġabsolute": 6509,
      "ulse": 6510,
      "Ġendpoint": 6511,
      "processors": 6512,
      "ĊĠĠĠĠĠĠĠĠĠĠĠĠĠĠĠĠĠĠĠĠĠĠĠĠĠĠĠĠĠĠĠĠĠĠĠĠĠĠĠĠĠĠĠĠĠĠĠĠĠĠĠĠĠĠĠĠĠĠĠĠĠĠĠĠĠĠĠĠĠĠĠĠĠĠĊĠĠĠĠĠĠĠĠĠĠĠĠĠĠĠĠĠĠĠĠĠĠĠĠĠĠĠĠĠĠĠĠĠĠĠĠĠĠĠĠĠĠĠĠĠĠĠĠĠĠĠĠĠĠĠĠĠĠĠĠĠĠĠĠĠĠĠĠĠĊĠĠĠĠĠĠĠĠĠĠĠĠĠĠĠĠĠĠĠĠĠĠĠĠĠĠĠĠĠĠĠĠ": 6513,
      "SUB": 6514,
      "SyntaxError": 6515,
      "fk": 6516,
      "union": 6517,
      "')])": 6518,
      "quare": 6519,
      "ONG": 6520,
      "globals": 6521,
      "Video": 6522,
      "Access": 6523,
      "Axis": 6524,
      "OFF": 6525,
      "mut": 6526,
      "chemas": 6527,
      "Ġmimetypes": 6528,
      "Ctrl": 6529,
      "mutable": 6530,
      "demand": 6531,
      "ĠĠĠĠĠĠĠĠĠĠĠĠĠĠĠĠĠĠĠĠĠĠĠĠĠĠĠĠ": 6532,
      "Ġmatches": 6533,
      "theme": 6534,
      "Generator": 6535,
      "scape": 6536,
      "was": 6537,
      "Ġbegin": 6538,
      "management": 6539,
      "RAN": 6540,
      "lices": 6541,
      "Ġrpc": 6542,
      "Ġexit": 6543,
      "creation": 6544,
      "FFFF": 6545,
      "Ġcompute": 6546,
      "samples": 6547,
      "zzzz": 6548,
      "through": 6549,
      "named": 6550,
      "Ġduration": 6551,
      "ONT": 6552,
      "Ġshop": 6553,
      "TagName": 6554,
      "VALID": 6555,
      "-\\": 6556,
      "Please": 6557,
      "\"][": 6558,
      "ĠOper": 6559,
      "ĠĠĠĠĠĠĠĠĠĠĠĠĠĠĠĠĠĠĠĠĠĠĠĠĠĠĠĠĠĠĠĠĠĠĠĠĠĠĠĠĠĠĠ": 6560,
      "markdown": 6561,
      "Ġweak": 6562,
      "Results": 6563,
      "Ġdep": 6564,
      "ĠEX": 6565,
      "UNK": 6566,
      "Ġcached": 6567,
      "72": 6568,
      "Language": 6569,
      "TABLE": 6570,
      "ypes": 6571,
      "checksum": 6572,
      "LAY": 6573,
      "'+": 6574,
      "middleware": 6575,
      "expire": 6576,
      "PP": 6577,
      "ino": 6578,
      "cores": 6579,
      "Report": 6580,
      "Ġtb": 6581,
      "ĠRaw": 6582,
      "Rate": 6583,
      "ags": 6584,
      "Ġplot": 6585,
      "__),": 6586,
      "adj": 6587,
      "compat": 6588,
      "Ġverify": 6589,
      "nan": 6590,
      "unregister": 6591,
      "ErrorCode": 6592,
      "ĠSession": 6593,
      "ities": 6594,
      "parents": 6595,
      "Ġformatter": 6596,
      "webapp": 6597,
      "Ġ1024": 6598,
      "+)": 6599,
      "ele": 6600,
      "ib": 6601,
      "sired": 6602,
      "ĠPage": 6603,
      "ĊĠĠĠĠĠĠĠĠĠĠĠĠĠĠĠĠĠĠĠĠĠĠĠĊ": 6604,
      "ĠInter": 6605,
      "lr": 6606,
      "Ġhour": 6607,
      "Ġkivy": 6608,
      "TAG": 6609,
      "Sched": 6610,
      "Stack": 6611,
      "rum": 6612,
      "Ġ'?": 6613,
      "readString": 6614,
      "ĠGoogle": 6615,
      "mitted": 6616,
      "ElementsBy": 6617,
      "Driver": 6618,
      "aming": 6619,
      "Ġelm": 6620,
      "Ġpaths": 6621,
      "posts": 6622,
      "Ġblocks": 6623,
      "started": 6624,
      "Cannot": 6625,
      "TIAL": 6626,
      "Adapter": 6627,
      "Generic": 6628,
      "Schema": 6629,
      "fr": 6630,
      "symbol": 6631,
      "threshold": 6632,
      "Encoding": 6633,
      "Ġchanged": 6634,
      "VIEW": 6635,
      "Ġradius": 6636,
      "History": 6637,
      "Radi": 6638,
      "stor": 6639,
      "times": 6640,
      "()).": 6641,
      "quoted": 6642,
      "orphic": 6643,
      "Ġrenderer": 6644,
      ".'),": 6645,
      "AV": 6646,
      "Bound": 6647,
      "figs": 6648,
      "under": 6649,
      "Api": 6650,
      "CACHE": 6651,
      "Ġ\"$": 6652,
      "small": 6653,
      "formats": 6654,
      "ĊĠĠĠĠĠĠĠĠĠĠĠĠĠĠĠĠĠĠĠĠĠĠĠĠĠĠĊĠĠĠ": 6655,
      "buttons": 6656,
      "hd": 6657,
      "kin": 6658,
      "stit": 6659,
      "MEDIA": 6660,
      "Ġpayment": 6661,
      "ĊĠĊĠĠĠĠĠĠĠĠĠĠĠĠĠĠĠĠĠĠĠĠĠĠĠĠĠĠĠĠĠĠĠĠĠĠĠĠĠĠĠĠĠĠĠĠĠĠĠĠĠĠĠĠĠĠĠĠĠĠĠĠĠĠĠĠĠĠĠĠĠĊĠĠĠĠĠĠĠĠĠĠĠĠĠĠĠĠĠĠĠĠĠĠĠĠĠĠĠĠĠĠĠĠĠĠĠĠĠĠĠĠĠĠĠĠĠĠĠĠĠĠĠĠĠĠĠĠĠĠĠĠĠĠĠĠĠĠĠĊĠĠĠĠĠĠĠĠĠĠĠĠĠĠĠĠĠĠĠĠĠĠĠĠĠĠĠĠĠĠĠĠĠĠĠĠĠĠĠĠĠĠĠĠĠĠĠĠĠĠĠĠĠĠĠĠĠĠĠĠĠĠĠĠĠĠĠĠĠĠĠĠĠĠĊĠĠĠĠĠĠĠĠĠĠĠĠĠĠĠĠĠĠĠĠĠĠĠĠĠĠĠĠĠĠĠĠĠĠĠĠĠĠĠĠĠĠĠĠĠĠĠĠĠĠĠĠĠĠĠĠĠĠĠĠĠĠĠĠĠĠĠĠĠĊĠĠĠĠĠĠĠĠĠĠĠĠĠĠĠĠĠĠĠĠĠĠĠĠĠĠĠĠĠĠĠĠ": 6662,
      "Ġsync": 6663,
      "mentation": 6664,
      "ĠMerge": 6665,
      "ĊĠĠĠĠĊĠĠĠĠĠĠĠ": 6666,
      "Selection": 6667,
      "iterable": 6668,
      "EE": 6669,
      "NORM": 6670,
      "Tab": 6671,
      "wheel": 6672,
      "Ġfd": 6673,
      "external": 6674,
      "ĠClear": 6675,
      "ULTI": 6676,
      "ĊĠĠĠĠĠĠĠĠĠĠĠĠĠĠĠĠĠĠĠĠĠĠĠĠĠĠĠĠĠĠĠĠĠĠĠĠĠĠĠĠĠĊĠ": 6677,
      "twisted": 6678,
      "/\\": 6679,
      "Ġrep": 6680,
      "Ġwithout": 6681,
      "popup": 6682,
      "modes": 6683,
      "glob": 6684,
      "stand": 6685,
      "gered": 6686,
      "relative": 6687,
      "DOWN": 6688,
      "LIN": 6689,
      "aign": 6690,
      "cn": 6691,
      "ParseError": 6692,
      "58": 6693,
      "getElementsBy": 6694,
      "Ġvector": 6695,
      "OPEN": 6696,
      "scheduler": 6697,
      "Iteration": 6698,
      "family": 6699,
      "ĠStop": 6700,
      "\"\"\",": 6701,
      "uncate": 6702,
      "ĊĊĠĠĠĠĠĠĠĠĠĠĠĠĠĠĠĠĠĠĠĠĠĠĠĠĠĠĠĠĠĠĠĠĠĠĠĠĠĠĠĠĠĠĠĠĠĠĠĠĠĠĠĠĠĠĠĠĠĠĠĠĠĠĠĠĠĠĠĠĠ": 6703,
      "dx": 6704,
      "gh": 6705,
      "micro": 6706,
      "rating": 6707,
      "Ġdot": 6708,
      "apsed": 6709,
      "ĠTable": 6710,
      "Ġsecurity": 6711,
      "Namespace": 6712,
      "vironment": 6713,
      "positions": 6714,
      "QUE": 6715,
      "Ġidentifier": 6716,
      "Ġterm": 6717,
      "allen": 6718,
      "assertIn": 6719,
      "imports": 6720,
      "ĠGeneric": 6721,
      "ĊĊĠĠĠĠĠĠĠĠĠĠĠĠĠĠĠĠĠĠ": 6722,
      "ategy": 6723,
      "Ġ'%(": 6724,
      "Ġclone": 6725,
      "fw": 6726,
      "hist": 6727,
      "uted": 6728,
      "Ġreference": 6729,
      "teral": 6730,
      "versed": 6731,
      "Ġcontains": 6732,
      "iteral": 6733,
      "ByName": 6734,
      "ĠPyQt": 6735,
      "Ġchanges": 6736,
      "Xml": 6737,
      "black": 6738,
      "lstrip": 6739,
      "sb": 6740,
      "ture": 6741,
      "orientation": 6742,
      "Ġgr": 6743,
      "Ġenum": 6744,
      "ĠNew": 6745,
      "gid": 6746,
      "Ġsaved": 6747,
      "Enum": 6748,
      "subprocess": 6749,
      "ĠElementTree": 6750,
      "ood": 6751,
      "Ġpad": 6752,
      "ĠAdmin": 6753,
      "'\",": 6754,
      "[[": 6755,
      "tell": 6756,
      "Ġcategories": 6757,
      "Contact": 6758,
      "Static": 6759,
      "ElementTree": 6760,
      "Off": 6761,
      "alc": 6762,
      "='%": 6763,
      "Ġ!-": 6764,
      "compare": 6765,
      "disable": 6766,
      "when": 6767,
      "precationWarning": 6768,
      "rank": 6769,
      "Ġfv": 6770,
      "ĠFloat": 6771,
      "ĊĠĠĠĠĠĠĠĠĠĠĠĠĠĠĠĠĠĠĠĠĠĠĠĠĠĠĠĠĠĠĠĠĠĠĠĠĠĠĠĠĠĠĠĠĠĠĠĠĠĠĠĠĠĠĠĠĠĠĠĠĠĠĠĠĠĠĠĠĠĠĠĠĠĠĠĠĊĠĠĠĠĠĠĠ": 6772,
      "peri": 6773,
      "ĠDestination": 6774,
      "ĊĊĠĠĠĠĠĠĠĠĠĠĠĠĠĠĠĠĠĠĠĠĠĠĠĠĠĠĠĠĠĠĠĠĠĠĠĠĠĠĠĠĠĠĠĠĠĠĠĠĠĠĠĠĠĠĠĠĠĠĠĠĠĠĠĠĠĠĠĠĠĠĠĠĠĠ": 6775,
      "2021": 6776,
      "Ġencoded": 6777,
      "ĊĠĠĠĠĠĠĠĊĊĠ": 6778,
      "ĊĊĠĠĠĠĠĠĠĠĠĠĠĠĠĠĠĠĠĠĠĠĠĠĠĠĠĠĠĠĠĠĠĠĠĠĠĠĠĠĠĠĠĠĠĠĠĠĠĠĠĠĠĠĠĠĠĠĠĠĠĠĠĠĠĠĠĠĠĠ": 6779,
      "ĠEnum": 6780,
      "assertNoOutput": 6781,
      "Round": 6782,
      "ĠĊĠĠĠĠĠĠĠĠĠĠĠĠĠĠĠĠĠĠĠĠĠĠĠĠĠĠĠĠĠĠĠĠĠĠĠĠĠĠĠĠĠĠĠĠĠĠĠĠĠĠĠĠĠĠĠĠ": 6783,
      "uess": 6784,
      "Ġinspect": 6785,
      "digo": 6786,
      "configuration": 6787,
      "Ġconfigured": 6788,
      "weights": 6789,
      "uffle": 6790,
      "./": 6791,
      "forward": 6792,
      "Ġnote": 6793,
      "Active": 6794,
      "Helper": 6795,
      "Long": 6796,
      "Ġenabled": 6797,
      "POINT": 6798,
      "ĊĊĠĠĠĠĠĠĠĠĠĠĠĠĠĠĠĠĠĠĠĠĠĠĠĠĠĠĠĠĠĠĠĠĠĠĠĠĠĠĠĠĠĠĠĠĠĠĠĠĠĠĠĠĠĠĠĠĠĠĠĠĠĠĠĠĠĠĠĠĠĠ": 6799,
      "flatten": 6800,
      "Any": 6801,
      "Ġsegment": 6802,
      "Ġpolicy": 6803,
      "Ġzone": 6804,
      "IGHT": 6805,
      "Ġdefined": 6806,
      "Draw": 6807,
      "2007": 6808,
      "ymbols": 6809,
      "Ġidentity": 6810,
      "training": 6811,
      "Identifier": 6812,
      "ĠImproperlyConfigured": 6813,
      "Ġsock": 6814,
      "vertical": 6815,
      "lengthVarInt": 6816,
      "Ġdefaultdict": 6817,
      "Ġinstances": 6818,
      "2009": 6819,
      "disconnect": 6820,
      "Completed": 6821,
      "pickle": 6822,
      "Ġdownload": 6823,
      "51": 6824,
      "FOR": 6825,
      "motor": 6826,
      "zoom": 6827,
      "Ġpt": 6828,
      "ĠMan": 6829,
      "quiet": 6830,
      "ĊĊĠĠĠĠĠĠĠĠĠĠĠĠĠĠĠĠĠĠĠĠĠĠĠĠĠĠĠĠĠĠĠĠĠĠĠĠĠĠĠĠĠĠĠĠĠĠĠĠĠĠĠĠĠĠĠĠĠĠĠĠĠĠĠĠĠĠĠĠĠĠĠĠĠĠĠĠĠ": 6831,
      "Local": 6832,
      "MergeFromString": 6833,
      "Ġeither": 6834,
      "lineStore": 6835,
      "Ġsec": 6836,
      "capacity": 6837,
      "ä¸": 6838,
      "ĠResponse": 6839,
      "ulated": 6840,
      "ĊĠĠĠĠĠĠĠĠĠĠĠĠĠĠĠĠĠĠĠĠĠĠĠĠĠĠĠĠĠĠĠĠĠĠĠĠĠĠĠĠĠĠĠĠĠĠĠĠĠĠĠĠĠĠĠĠĠĠĠĠĠĠĠĠĠĠĠĠĠĠĠĠĠĠĊĠĠĠĠĠĠĠ": 6841,
      "1111": 6842,
      "LANG": 6843,
      "seen": 6844,
      "ender": 6845,
      "('')": 6846,
      "manifest": 6847,
      "Ok": 6848,
      "gres": 6849,
      "orary": 6850,
      "Ġplay": 6851,
      "ilar": 6852,
      "Ġvars": 6853,
      "Ġlis": 6854,
      "constant": 6855,
      "=_(\"": 6856,
      "ernel": 6857,
      "Ġraiz": 6858,
      "Ġdeprecated": 6859,
      "parame": 6860,
      "ANCE": 6861,
      "Area": 6862,
      "Ġfreq": 6863,
      "Ġside": 6864,
      "Ġbus": 6865,
      "']]": 6866,
      "ĊĠĠĠĠĠĠĠĠĠĠĠĠĠĠĠĠĠĠĠĠĠĠĠĠĊĠĠĠĠĠĠĠ": 6867,
      "Ġtransport": 6868,
      "ttl": 6869,
      "Player": 6870,
      "ited": 6871,
      "getPrefixedString": 6872,
      "('.')": 6873,
      "unters": 6874,
      "Ġok": 6875,
      "Program": 6876,
      "Ġdoctest": 6877,
      "xyz": 6878,
      "DebugFormatString": 6879,
      "dependencies": 6880,
      "Hash": 6881,
      "_{": 6882,
      "dm": 6883,
      "fact": 6884,
      "xn": 6885,
      "ĊĠĠĠĠĠĠĠĠĠĠĠĠĠĠĠĠĠĠĠĠĠĠĊĠĠĠĠĠĠĠ": 6886,
      "uni": 6887,
      "ATURE": 6888,
      "tc": 6889,
      "Ġpie": 6890,
      "Ġnu": 6891,
      "ĠDFA": 6892,
      "variables": 6893,
      "63": 6894,
      "Sm": 6895,
      "restore": 6896,
      "aries": 6897,
      "SERT": 6898,
      "74": 6899,
      "Skip": 6900,
      "ĠĊ": 6901,
      "tour": 6902,
      "tokenQueue": 6903,
      "Ġbyref": 6904,
      "Ġlook": 6905,
      "Ġconstants": 6906,
      "GST": 6907,
      "Su": 6908,
      "Ġcore": 6909,
      "ĊĠĊĠĠĠĠĠĠĠĠĠĠĠĠĠĠĠĠĠĠĠĠĠĠĠĠĠĠĠĠĠĠĠĠĠĠĠĠĠĠĠĠĠĠĠĠĠĠĠĠĠĠĠĠĠĠĠĠĠĠĠĠĠĠĠĠĠĠĠ": 6910,
      "ĠSource": 6911,
      "ĠPRO": 6912,
      "getElementsByTagName": 6913,
      "=='": 6914,
      "Scale": 6915,
      "]\"": 6916,
      "big": 6917,
      "pn": 6918,
      "seg": 6919,
      "respon": 6920,
      "Ġengine": 6921,
      "MIT": 6922,
      "Ġwho": 6923,
      "Headers": 6924,
      "ĠExpr": 6925,
      "herit": 6926,
      "ĊĠĊĠĠĠĠĠĠĠĠĠĠĠĠĠĠĠĠĠĠĠĠĠĠĠĠĠĠĠĠĠĠĠĠĠĠĠĠĠĠĠĠĠĠĠĠĠĠĠĠĠĠĠĠĠĠĠĠĠĠĠĠĠĠĠĠĠĊĠĠĠĠĠĠĠĠĠĠĠĠĠĠĠĠĠĠĠĠĠĠĠĠĠĠĠĠĠĠĠĠĠĠĠĠĠĠĠĠĠĠĠĠĠĠĠĠĠĠĠĠĠĠĠĠĠĠĠĠĠĠĠĠĠĠ": 6927,
      "Detail": 6928,
      "birth": 6929,
      "turn": 6930,
      "Ġchr": 6931,
      "Ġperiod": 6932,
      "Rot": 6933,
      "mysql": 6934,
      "rev": 6935,
      "program": 6936,
      "Show": 6937,
      "Ġpacket": 6938,
      "Processor": 6939,
      "Func": 6940,
      "YPE": 6941,
      "illa": 6942,
      "Ġwsgi": 6943,
      "isfile": 6944,
      "ordering": 6945,
      "Ġtake": 6946,
      "dimensions": 6947,
      "\\.": 6948,
      "trics": 6949,
      "filepath": 6950,
      "INST": 6951,
      "ocity": 6952,
      "Ġprivate": 6953,
      "Ġcelery": 6954,
      "HA": 6955,
      "Null": 6956,
      "ticket": 6957,
      "Ġsi": 6958,
      "Ġds": 6959,
      "quality": 6960,
      "checkbox": 6961,
      "Timestamp": 6962,
      "datat": 6963,
      "Ġexpires": 6964,
      "GSTypes": 6965,
      "61": 6966,
      "Ġlazy": 6967,
      "ĠTBinaryProtocol": 6968,
      "ĠSign": 6969,
      "Ġdev": 6970,
      "alive": 6971,
      "optional": 6972,
      "avor": 6973,
      "NET": 6974,
      "machine": 6975,
      "Ġsur": 6976,
      "DEV": 6977,
      "Ġurls": 6978,
      "callable": 6979,
      "Images": 6980,
      "mium": 6981,
      "PIPE": 6982,
      "rexTypes": 6983,
      "SM": 6984,
      "tch": 6985,
      "invo": 6986,
      "ells": 6987,
      "keywords": 6988,
      "Reactor": 6989,
      "ĠValueType": 6990,
      "NAMES": 6991,
      "compiled": 6992,
      "CONNE": 6993,
      "ProtocolMessage": 6994,
      "BYTE": 6995,
      "/\")": 6996,
      "ASC": 6997,
      "IE": 6998,
      "SPE": 6999,
      "mass": 7000,
      "same": 7001,
      "Ġreply": 7002,
      "library": 7003,
      "Ġwhat": 7004,
      "books": 7005,
      "sqrt": 7006,
      "sertionError": 7007,
      "ĠAttrMapValue": 7008,
      ";\"": 7009,
      "Non": 7010,
      "bf": 7011,
      "ĊĊĠĠĠĠĠĠĠĠĠĠĠĠĠĠĠĠĠĠĠĠ": 7012,
      "thumbnail": 7013,
      "ĠCar": 7014,
      "Ġgdata": 7015,
      "ĊĠĠĠĠĠĠĠĠĠĠĠĠĠĠĠĠĠĠĠĠĠĠĠĠĠĠĠĊĠĠĠ": 7016,
      "Chunk": 7017,
      "ĠInteger": 7018,
      "68": 7019,
      "oser": 7020,
      "assed": 7021,
      "Ġhome": 7022,
      "dential": 7023,
      "Domain": 7024,
      "ĠPercent": 7025,
      "Avg": 7026,
      "((\"": 7027,
      "Cor": 7028,
      "vlan": 7029,
      "reward": 7030,
      "dec": 7031,
      "ĠGNU": 7032,
      "velop": 7033,
      "ĊĠĠĠĠĠĠĠĠĠĠĠĠĠĠĠĠĠĠĠĠĠĠĠĠĠĠĠĠĠĠĊĠĠĠ": 7034,
      "ĠState": 7035,
      "certificate": 7036,
      "listener": 7037,
      "osition": 7038,
      "(\"\")": 7039,
      "percent": 7040,
      "food": 7041,
      "latex": 7042,
      "Ġenc": 7043,
      "ĠNOT": 7044,
      "ards": 7045,
      "connections": 7046,
      "soft": 7047,
      "ĠDataSource": 7048,
      "'(?": 7049,
      "Ġscan": 7050,
      "quick": 7051,
      "rypto": 7052,
      "....": 7053,
      "Timeout": 7054,
      "transp": 7055,
      "ĊĠĠĠĠĠĠĠĠĠĠĠĠĠĠĠĠĠĠĠĠĠĠĠĠĠĠĠĠĠĠĠĠĠĠĠĠĠĠĠĠĠĠĠĠĠĠĠĠĠĠĠĠĠĠĠĠĠĠĠĠĠĠĠĠĠĠĠĠĠĠĠĠĊĠĠĠĠĠĠĠĠĠĠĠĠĠĠĠĠĠĠĠĠĠĠĠĠĠĠĠĠĠĠĠĠĠĠĠĠĠĠĠĠĠĠĠĠĠĠĠĠĠĠĠĠĠĠĠĠĠĠĠĠĠĠĠĠĠĠĠĠĠĠĠĠ": 7056,
      "Ġcodigo": 7057,
      "activity": 7058,
      "ticks": 7059,
      "Tot": 7060,
      "altern": 7061,
      "routing": 7062,
      "andbox": 7063,
      "(\"--": 7064,
      "Ġ23": 7065,
      "={},": 7066,
      "Ġmodifiers": 7067,
      "ĠParser": 7068,
      "ĠSELECT": 7069,
      "TRAIN": 7070,
      "AF": 7071,
      "kinter": 7072,
      "plan": 7073,
      "sites": 7074,
      "Exit": 7075,
      "Ġcomments": 7076,
      "phone": 7077,
      "DIRECT": 7078,
      "ĠEntity": 7079,
      "Ġfunctools": 7080,
      "__[": 7081,
      "extr": 7082,
      "ĠAN": 7083,
      "avatar": 7084,
      "Article": 7085,
      "wrapped": 7086,
      "ĠMergeFrom": 7087,
      "bat": 7088,
      "best": 7089,
      "inv": 7090,
      "tech": 7091,
      "getter": 7092,
      "Ġmove": 7093,
      "Ġsignals": 7094,
      "mkdir": 7095,
      "allenge": 7096,
      "MB": 7097,
      "RC": 7098,
      "TCP": 7099,
      "ĠĊĠĠĠĠĠĠĠĠĠĠĠĠĠĠĠĠĠĠĠĠĠĠĠ": 7100,
      "digit": 7101,
      "ports": 7102,
      "MAIL": 7103,
      "Attr": 7104,
      "Ġ80": 7105,
      "Author": 7106,
      "Acceler": 7107,
      "300": 7108,
      "havi": 7109,
      "ua": 7110,
      "Ġps": 7111,
      "strap": 7112,
      "ational": 7113,
      "logged": 7114,
      "ĠPAR": 7115,
      "readStruct": 7116,
      "Ġ300": 7117,
      "Ġfunctions": 7118,
      "81": 7119,
      "Cmp": 7120,
      "Ġdeleted": 7121,
      "ĊĠĠĠĠĠĠĠĠĠĠĠĠĠĠĠĠĠĠĠĠĠĠĠĠĠĠĠĠĠĠĠĊĠĠĠ": 7122,
      "Ġrouter": 7123,
      "IIII": 7124,
      "virtual": 7125,
      "Ġreader": 7126,
      "fit": 7127,
      "ĠMax": 7128,
      "beat": 7129,
      "Limit": 7130,
      "UAGE": 7131,
      "\\'": 7132,
      "vated": 7133,
      "lopen": 7134,
      "Ġsame": 7135,
      "ĠPri": 7136,
      "pkt": 7137,
      "ceive": 7138,
      "boundary": 7139,
      "ippet": 7140,
      "CEL": 7141,
      "btn": 7142,
      "ĠEquals": 7143,
      "ube": 7144,
      "Ġprops": 7145,
      "RENT": 7146,
      "9999": 7147,
      "Prefix": 7148,
      "Ġmultiple": 7149,
      "RGB": 7150,
      "Vec": 7151,
      "rr": 7152,
      "lected": 7153,
      "ardown": 7154,
      "FormSet": 7155,
      "ĊĠĠĠĠĠĠĠĠĠĠĠĠĠĠĠĠĠĠĠĠĠĠĠĠĠĠĠĠĠĊĠĠĠ": 7156,
      "2008": 7157,
      "Ġmarker": 7158,
      "ĠColor": 7159,
      "ĠIsInitialized": 7160,
      "!')": 7161,
      "](": 7162,
      "mun": 7163,
      "Repo": 7164,
      "mount": 7165,
      "ĠĠĠĠĠĠĠĠĠĠĠĠĠĠĠĠĠĠĠĠĠĠĠĠĠĠĠĠĠ": 7166,
      "threads": 7167,
      "bed": 7168,
      "indexes": 7169,
      "ACTION": 7170,
      "izard": 7171,
      "impl": 7172,
      "cells": 7173,
      "hours": 7174,
      "ProtocolBufferDecodeError": 7175,
      "62": 7176,
      "SyncMode": 7177,
      "leno": 7178,
      "share": 7179,
      "Ġfixtures": 7180,
      "Ġtorch": 7181,
      "Catalog": 7182,
      "Ġ\"(": 7183,
      "upo": 7184,
      "Ġstar": 7185,
      "configure": 7186,
      "Ġcountry": 7187,
      "ĠOutputUnchecked": 7188,
      "aj": 7189,
      "alect": 7190,
      "demo": 7191,
      "Ġ'$": 7192,
      "sitem": 7193,
      "Ġbases": 7194,
      "ĠConnection": 7195,
      "Ġacti": 7196,
      "printer": 7197,
      "NOWN": 7198,
      "Ġmodify": 7199,
      "192": 7200,
      "VALUES": 7201,
      "[^\\": 7202,
      "GEN": 7203,
      "Right": 7204,
      "Ġhistory": 7205,
      "ĠTryMerge": 7206,
      "ĊĠĠĠĠĠĠĠĠĠĠĠĠĠĠĠĠĠĠĠĠĠĠĠĠĠĠĠĠĠĠĠĠĠĠĠĠĠĠĠĠĠĠĠĠĠĠĠĠĠĠĠĠĠĠĠĠĠĠĠĠĠĠĠĠĠĠĠĠĠĠĠĠĊĠĠĠĠĠĠĠ": 7207,
      "Ġ21": 7208,
      "RES": 7209,
      "grupo": 7210,
      "ĠWindow": 7211,
      "skipData": 7212,
      "3333": 7213,
      "achine": 7214,
      "Ġbottom": 7215,
      "uest": 7216,
      "Ġretri": 7217,
      "ORS": 7218,
      "ĠItem": 7219,
      "ĠContext": 7220,
      "authorized": 7221,
      "Ġfollowing": 7222,
      "ĊĠĊĠĠĠĠĠĠĠĠĠĠĠĠĠĠĠĠĠĠĠĠĠĠĠĠĠĠĠĠĠĠĠĠĠĠĠĠĠĠĠĠĠĠĠĠĠĠĠĠĠĠĠĠĠĠĠĠĠĠĠĠĠĠĠĠĠĊĠĠĠĠĠĠĠĠĠĠĠĠĠĠĠĠĠĠĠĠĠĠĠĠĠĠĠĠĠĠĠĠĠĠĠĠĠĠĠĠĠĠĠĠĠĠĠĠĠĠĠĠĠĠĠĠĠĠĠĠĠĠĠĠĠĠĊĠĠĠĠĠĠĠĠĠĠĠĠĠĠĠĠĠĠĠĠĠĠĠĠĠĠĠĠĠĠĠĠĠĠĠĠĠĠĠĠĠĊĠ": 7223,
      "Side": 7224,
      "gain": 7225,
      "inct": 7226,
      "lets": 7227,
      "Ġfree": 7228,
      "ĊĠĠĠĠĠĠĠĠĠĠĠĠĠĠĠĠĠĠĠĠĠĠĠĠĠĠĠĠĠĠĠĠĠĠĠĠĠĠĠĠĠĠĠĠĠĠĠĠĠĠĠĠĠĠĠĠĠĠĠĠĠĠĠĠĠĠĠĠĠĠĠĠĠĠĠĊĠĠĠĠĠĠĠ": 7229,
      "ĠQueue": 7230,
      "POSI": 7231,
      "Attri": 7232,
      "relationships": 7233,
      "urlopen": 7234,
      "perms": 7235,
      "Ġreportlab": 7236,
      "Abstract": 7237,
      "MODULE": 7238,
      "EC": 7239,
      "NONE": 7240,
      "mid": 7241,
      "ĠĠĠĠĠĠĠĊĠĠĠĠĠĠĠĠĠĠĠ": 7242,
      "toggle": 7243,
      "Timer": 7244,
      "goto": 7245,
      "Ġrunning": 7246,
      "ĠAuthor": 7247,
      "directed": 7248,
      "Clear": 7249,
      "ĊĊĠĠĠĠĠĠĠĠĠĠĠĠĠĠĠĠĠĠĠĠĠĠĠĠĠ": 7250,
      "fire": 7251,
      "Ġsol": 7252,
      "('',": 7253,
      "Ġmaster": 7254,
      "Ġconstruct": 7255,
      "ancestor": 7256,
      "cause": 7257,
      "minor": 7258,
      "trize": 7259,
      "pipe": 7260,
      "matched": 7261,
      "=[],": 7262,
      "calar": 7263,
      "MULTI": 7264,
      "OAuth": 7265,
      "dge": 7266,
      "uring": 7267,
      "formance": 7268,
      "Ġprovider": 7269,
      "GEX": 7270,
      "good": 7271,
      "Ġ'.'": 7272,
      "accounts": 7273,
      "nbsp": 7274,
      "Ġpq": 7275,
      "Ġsy": 7276,
      "Ġslice": 7277,
      "backup": 7278,
      "chunks": 7279,
      "Ġreceived": 7280,
      "REF": 7281,
      "splitlines": 7282,
      "targets": 7283,
      "cpu": 7284,
      "=%(": 7285,
      "Serializer": 7286,
      ".</": 7287,
      "94": 7288,
      "schemas": 7289,
      "}),": 7290,
      "Ġtf": 7291,
      "standard": 7292,
      "Ġssl": 7293,
      "spacing": 7294,
      "ORK": 7295,
      "csrf": 7296,
      "Ġelements": 7297,
      "Ġproducts": 7298,
      "uv": 7299,
      "Ġsel": 7300,
      "Ġtail": 7301,
      "ĠTYPE": 7302,
      "usr": 7303,
      "ĠSystem": 7304,
      "encoded": 7305,
      "Signal": 7306,
      "pagination": 7307,
      ":\",": 7308,
      "Use": 7309,
      "average": 7310,
      "yes": 7311,
      "inates": 7312,
      "tier": 7313,
      "Ġcc": 7314,
      "ssaging": 7315,
      "Provider": 7316,
      "ĠNifFormat": 7317,
      "ĠEmpty": 7318,
      "processing": 7319,
      "dynamic": 7320,
      "rase": 7321,
      "STOP": 7322,
      "readField": 7323,
      ".+": 7324,
      "Mod": 7325,
      "raises": 7326,
      "')):": 7327,
      "setattr": 7328,
      "Ġbetween": 7329,
      "Ġrhs": 7330,
      "ĊĠĊĠĠĠ": 7331,
      "dates": 7332,
      "ĠUN": 7333,
      "Encode": 7334,
      "Ġwidgets": 7335,
      "Ġselector": 7336,
      "Ġdefinition": 7337,
      "ĠProducts": 7338,
      "COMMAND": 7339,
      ":],": 7340,
      "hit": 7341,
      "lent": 7342,
      "urch": 7343,
      "aman": 7344,
      "Ġlat": 7345,
      "alice": 7346,
      "trade": 7347,
      "energy": 7348,
      "Price": 7349,
      "parametrize": 7350,
      "damage": 7351,
      "album": 7352,
      "cture": 7353,
      "etc": 7354,
      "ĠAb": 7355,
      "DED": 7356,
      "multipart": 7357,
      "flavor": 7358,
      "ĠRegistry": 7359,
      "Pl": 7360,
      "iprot": 7361,
      "defs": 7362,
      "()\"),": 7363,
      "ends": 7364,
      "ffered": 7365,
      "ipy": 7366,
      "012": 7367,
      "Dataset": 7368,
      "inputs": 7369,
      "OUTPUT": 7370,
      "Library": 7371,
      "TBinaryProtocol": 7372,
      "dash": 7373,
      "alth": 7374,
      "atchmo": 7375,
      "Ġ500": 7376,
      "Renderer": 7377,
      "Accelerated": 7378,
      "92": 7379,
      "Fragment": 7380,
      "mix": 7381,
      "eng": 7382,
      "writeStruct": 7383,
      "aily": 7384,
      "weet": 7385,
      "runner": 7386,
      "\">\\": 7387,
      "ĊĠĠĠĠĠĠĠĠĠĠĠĠĠĠĠĠĠĠĠĠĠĠĠĠĠĠĠĠĠĠĠĠĠĠĠĠĠĠĠĠĠĠĠĠĠĠĠĠĠĠĠĠĠĠĠĠĠĠĠĠĠĠĠĠĠĠĠĠĊĠĠĠĠĠĠĠĠĠĠĠĠĠĠĠĠĠĠĠĠĠĠĠĠĠĠĠĠĠĠĠĠĠĠĠĠĠĠĠĠĠĠĠĠĠĠĠĠĠĠĠĠĠĠĠĠĠĠĠĠĠĠĠĠĠĠĠĠĠĠĠĠ": 7388,
      "Ġchars": 7389,
      "Accept": 7390,
      "ĠCount": 7391,
      "binding": 7392,
      "OW": 7393,
      "ZZ": 7394,
      "ever": 7395,
      "ii": 7396,
      "jpg": 7397,
      "selfdrive": 7398,
      "silon": 7399,
      "oll": 7400,
      "vey": 7401,
      "actual": 7402,
      "poll": 7403,
      "ChoiceField": 7404,
      "sizes": 7405,
      "FUN": 7406,
      "Success": 7407,
      "Ġ\"\":": 7408,
      "\")[": 7409,
      "urlresolvers": 7410,
      "Ġ22": 7411,
      "Ġtexture": 7412,
      "Region": 7413,
      "places": 7414,
      "Ġstrict": 7415,
      "Constants": 7416,
      "ĊĠĠĠĠĠĠĠĠĠĠĠĠĠĠĠĠĠĠĠĠĠĠĠĠĠĠĠĠĠĠĠĠĠĠĠĠĠĠĠĠĠĠĠĠĠĠĠĠĠĠĠĠĠĠĠĠĠĠĠĠĠĠĠĠĠĠĠĠĠĠĠĠĠĠĠĠĠĠĊĠĠĠĠĠĠĠĠĠĠĠĠĠĠĠĠĠĠĠĠĠĠĠĠĠĠĠĠĠĠĠĠĠĠĠĠĠĠĠĠĠĠĠĠĠĠĠĠĠĠĠĠĠĠĠĠĠĠĠĠĠĠĠĠĠĠĠĠĠĠĠĠĠĠĠĠĠĊĠĠĠĠĠĠĠĠĠĠĠĠĠĠĠĠĠĠĠĠĠĠĠĠĠĠĠĠĠĠĠĠĠĠĠĠĠĠĠĠĠĠĠĠĠĠĠĠĠĠĠĠĠĠĠĠĠĠĠĠĠĠĠĠĠĠĠĠĠĠĠĠĠĠĠĠ": 7417,
      "Ang": 7418,
      "Missing": 7419,
      "Ġlower": 7420,
      "ĠVersion": 7421,
      "Media": 7422,
      "rotate": 7423,
      "stem": 7424,
      "}{": 7425,
      "assertHTML": 7426,
      "Ġpages": 7427,
      "ĠĠĠĠĠĠĠĠĠĠĠĠĊĠĠĠĠĠĠĠĠĠĠĠ": 7428,
      "assertHTMLEqual": 7429,
      "93": 7430,
      "BIT": 7431,
      "Target": 7432,
      "Ġanswer": 7433,
      "('{": 7434,
      "until": 7435,
      "rig": 7436,
      "Ġtok": 7437,
      "ymorphic": 7438,
      "Ġfeatureview": 7439,
      "Optional": 7440,
      "EP": 7441,
      "dp": 7442,
      "inal": 7443,
      "Ġ'</": 7444,
      "unlink": 7445,
      "Ġcould": 7446,
      "ĠEMPTY": 7447,
      "stdin": 7448,
      "mul": 7449,
      "uz": 7450,
      "STO": 7451,
      "Ġunits": 7452,
      "Ġheap": 7453,
      "Ġlet": 7454,
      "LOB": 7455,
      "ĊĊĠĠĠĠĠĠĠĠĠĠĠĠĠĠĠĠĠĠĠĠĠĠĠĠĠĠĠĠĠĠĠĠĠĠĠĠĠĠĠĠĠĠĠĠĠĠĠĠĠĠĠĠĠĠĠĠĠĠĠĠĠĠĠĠĠĠĠĠĠĠĠĠĠ": 7456,
      "ĊĠĠĠĠĠĠĠĠĠĠĠĠĠĠĠĠĠĠĠĠĠĠĊĠĠĠ": 7457,
      "TBinaryProtocolAccelerated": 7458,
      "Sum": 7459,
      "Volume": 7460,
      "]-": 7461,
      "ffect": 7462,
      "ATCH": 7463,
      "Builtin": 7464,
      "closure": 7465,
      "Ġcommands": 7466,
      "Ġobserver": 7467,
      "declarative": 7468,
      "ĠRepoConfig": 7469,
      "difference": 7470,
      "ĠOperator": 7471,
      "ah": 7472,
      "qn": 7473,
      "ĊĊĠĠĠĠĠĠĠĠĠ": 7474,
      "ĠFor": 7475,
      "Defin": 7476,
      "Configuration": 7477,
      "which": 7478,
      "Ġpkt": 7479,
      "Clean": 7480,
      "HCP": 7481,
      "suc": 7482,
      "reserved": 7483,
      "adow": 7484,
      "signment": 7485,
      "Ġrelative": 7486,
      "Ġdecorator": 7487,
      "*',": 7488,
      "Click": 7489,
      "ey": 7490,
      "Ġannot": 7491,
      "ĠĠĠĠĠĠĠĠĠĠĠĠĠĠĠĠĠĠĠĠĠĠĠĠĠĠĠĠĠĠĠĠĠĠ": 7492,
      "Ġblog": 7493,
      "minute": 7494,
      "...\")": 7495,
      "aaaa": 7496,
      "illiseconds": 7497,
      "dummy": 7498,
      "sid": 7499,
      "stores": 7500,
      "COOK": 7501,
      "Characters": 7502,
      "recent": 7503,
      "Validator": 7504,
      "Ġadded": 7505,
      "600": 7506,
      "Mapper": 7507,
      "Zip": 7508,
      "segments": 7509,
      "Ġmicro": 7510,
      "Ġ[{\"": 7511,
      "Ġstreams": 7512,
      "coming": 7513,
      "hosting": 7514,
      "Visible": 7515,
      "specified": 7516,
      "Ġcloud": 7517,
      "realm": 7518,
      "gateway": 7519,
      "SIGNAL": 7520,
      "ĠStopIteration": 7521,
      "DT": 7522,
      "PRI": 7523,
      "ï¼": 7524,
      "Ġ256": 7525,
      "INSERT": 7526,
      "ORY": 7527,
      "StringProperty": 7528,
      "://%": 7529,
      "istribution": 7530,
      "ComboBox": 7531,
      "Pop": 7532,
      "Slot": 7533,
      "cnt": 7534,
      "lst": 7535,
      "Ġlow": 7536,
      "ena": 7537,
      "launch": 7538,
      "irt": 7539,
      "Enable": 7540,
      "ĠYou": 7541,
      "ĊĠĠĠĠĠĠĠĠĠĠĠĠĠĠĠĠĠĠĠĠĠĠĠĠĠĠĠĠĠĠĠĠĠĠĠĠĠĠĠĠĠĠĠĠĠĠĠĠĠĠĠĠĊĠĊĠĠĠĠĠĠĠĠĠĠĠĠĠĠĠĠĠĠĠĠĠĠĠĠĠĠĠĠĠĠĠĠĠĠĠĠĠĠĠĠĠĠĠĠĠĠĠĠĠĠĠĠĠĠĠĠĠĠĠĠĠĠĠĠĠĠĠĠĠĠĠĠ": 7542,
      "Attributes": 7543,
      "Full": 7544,
      "Import": 7545,
      "ĊĊĠĠĠĠĠĠĠĠĠĠĠĠĠĠĠĠĠ": 7546,
      "Ġcss": 7547,
      "currency": 7548,
      "MESS": 7549,
      "channels": 7550,
      "Ġdiffs": 7551,
      "Html": 7552,
      "ario": 7553,
      "linux": 7554,
      "Ġalign": 7555,
      "Authorization": 7556,
      "QUAL": 7557,
      "serialization": 7558,
      "gradOffset": 7559,
      "amanho": 7560,
      "ĊĠĠĠĠĠĠĠĠĠĠĠĠĠĠĠĠĠĠĠĠĠĠĠĠĠĠĠĠĠĠĠĠĠĠĠĠĠĠĠĠĠĠĠĠĠĠĠĠĠĠĠĠĊĠĊĠĠĠĠĠĠĠĠĠĠĠĠĠĠĠĠĠĠĠĠĠĠĠĠĠĠĠĠĠĠĠĠĠĠĠĠĠĠĠĠĠĠĠĠĠĠĠĠĠĠĠĠĠĠĠĠĠĠĠĠĠĠĠĠĠĠĠĠĠĠĠĠĊĠĠĠĠĠĠĠĠĠĠĠĠĠĠĠĠĠĠĠĠĠĠĠĠĠĠĠĠĠĠĠĠĠĠĠĠĠĠĠĠĠĠĠĠĠĠĠĠĠĠĠĠĠĠĠĠĠĠĠĠĠĠĠĠĠĠĠĠĠĠĠĠĠĠĠĠĠĠĊĠĠĠĠĠĠĠĠĠĠĠĠĠĠĠĠĠĠĠĠĠĠĠĠĠĠĠĠĠĠĠĠĠĠĠĠĠĠĠĠĠĠĠĠĠĠĠĠĠĠĠĠĠĠĠĠĠĠĠĠĠĠĠĠĠĠĠĠĠĠĠĠĠĠĠĠĠĊĠĠĠĠĠĠĠĠĠĠĠĠĠĠĠĠĠĠĠĠĠĠĠĠĠĠĠĠĠĠĠĠĠĠĠĠĠĠĠĠĠĠĠĠĠĠĠĠĠĠĠĠĠĠĠĠĠĠĠĠĠĠĠĠĠĠĠĠĠĠĠĠĠĠĠĠ": 7561,
      "MESSAGE": 7562,
      "/>": 7563,
      "ming": 7564,
      "ratio": 7565,
      "slots": 7566,
      "ĊĠĠĠĠĠĠĠĠĠĠĠĠĠĠĠĠĠĠĠĠĠĠĠĠĠĠĠĠĠĠĠĠĠĠĠĠĠĠĠĠĠĠĠĠĠĠĠĠĠĠĠĠĠĠĠĠĠĠĠĠĠĠĠĠĠĠĠĠĠĠĠĠĠĠĠĠĠĊĠĠĠĠĠĠĠ": 7567,
      "Ġtoo": 7568,
      "Unable": 7569,
      "ĊĠĠĠĠĠĠĠĠĠĠĠĠĠĠĠĠĠĠĠĠĠĠĠĠĠĠĠĠĠĠĠĠĠĠĠĠĠĠĠĠĠĠĠĠĠĠĠĠĠĠĠĠĠĠĠĠĠĠĠĠĠĠĠĠĠĠĠĠĠĠĠĠĠĠĠĠĊĠĠĠĠĠĠĠĠĠĠĠĠĠĠĠĠĠĠĠĠĠĠĠĠĠĠĠĠĠĊĠ": 7570,
      "Layer": 7571,
      "################": 7572,
      "Align": 7573,
      "agicMock": 7574,
      "COUNT": 7575,
      "IES": 7576,
      "hits": 7577,
      "nor": 7578,
      "Ġcv": 7579,
      "adapter": 7580,
      "ĠTw": 7581,
      "Ġnamed": 7582,
      "Ġ:]": 7583,
      "Async": 7584,
      "ManyToMany": 7585,
      "ĊĠĠĠĠĠĠĠĠĠĠĠĠĠĠĠĠĠĠĠĠĠĠĠĠĠĠĠĠĠĠĠĠĠĠĠĠĠĠĠĠĠĠĠĠĠĠĠĠĠĠĠĠĠĠĠĠĠĠĠĠĠĠĠĠĠĠĠĠĠĠĠĠĠĠĠĠĊĠĠĠĠĠĠĠĠĠĠĠĠĠĠĠĠĠĠĠĠĠĠĠĠĠĠĠĠĠĊĠĊĠĠĠĠĠĠĠĠĠĠĠĠĠĠĠĠĠĠĠĠĠĠĠĠĠĠĠĠĠĠĠĠĠĠĠĠĠĠĠĠĠĠĠĠĠĠĠĠĠĠĠĠĊĠĊĠĠĠĠĠĠĠĠĠĠĠĠĠĠĠĠĠĠĠĠĠĠĠĠĠĠĠĠĠĠĠĠĠĠĠĠĠĠĠĠĠĠĠĠĠĠĠĠĠĠĠĠĠĠĠĠĠĠĠĠĠĠĠĠĠĠĠĠĠĠĠĠĊĠĠĠĠĠĠĠĠĠĠĠĠĠĠĠĠĠĠĠĠĠĠĠĠĠĠĠĠĠĠĠĠĠĠĠĠĠĠĠĠĠĠĠĠĠĠĠĠĠĠĠĠĠĠĠĠĠĠĠĠĠĠĠĠĠĠĠĠĠĠĠĠĠĠĠĠĠĠĊĠĠĠĠĠĠĠĠĠĠĠĠĠĠĠĠĠĠĠĠĠĠĠĠĠĠĠĠĠĠĠĠĠĠĠĠĠĠĠĠĠĠĠĠĠĠĠĠĠĠĠĠĠĠĠĠĠĠĠĠĠĠĠĠĠĠĠĠĠĠĠĠĠĠĠĠĠĊĠĠĠĠĠĠĠĠĠĠĠĠĠĠĠĠĠĠĠĠĠĠĠĠĠĠĠĠĠĠĠĠĠĠĠĠĠĠĠĠĠĠĠĠĠĠĠĠĠĠĠĠĠĠĠĠĠĠĠĠĠĠĠĠĠĠĠĠĠĠĠĠĠĠĠĠ": 7586,
      "Help": 7587,
      "ensor": 7588,
      "Ġdig": 7589,
      "verbosity": 7590,
      "Ġtar": 7591,
      "ĠLine": 7592,
      "Ġpermission": 7593,
      "assifi": 7594,
      "degree": 7595,
      "WIN": 7596,
      "ĊĊĠĠĠĠĠĠĠĠĠĠĠĠĠĠĠĠĠĠĠĠĠ": 7597,
      "sic": 7598,
      "Ġbinary": 7599,
      "Ġorigin": 7600,
      "ĊĠĠĠĠĊĠ": 7601,
      "ĠBY": 7602,
      "1024": 7603,
      "Ġpycam": 7604,
      "markup": 7605,
      "FFER": 7606,
      "ĠSequence": 7607,
      "EVENT": 7608,
      "trigger": 7609,
      "Ġ26": 7610,
      "ava": 7611,
      "Ġsummary": 7612,
      "/(": 7613,
      "Push": 7614,
      "extent": 7615,
      "Ġrand": 7616,
      "ĠTABLE": 7617,
      "allback": 7618,
      "Ġglobals": 7619,
      "ĊĠĠĠĠĠĠĠĠĠĠĠĠĠĠĠĠĠĠĠĠĠĠĠĠĠĠĠĠĠĠĠĠĠĠĠĠĠĠĠĠĠĠĠĠĠĠĠĠĠĠĠĠĠĠĠĠĠĠĠĠĠĠĠĠĠĠĠĠĠĠĠĠĠĠĠĠĠĠĠĠĠĠĠĠ": 7620,
      "vari": 7621,
      "Widgets": 7622,
      "Selector": 7623,
      "ĠUnicode": 7624,
      "Ġrepository": 7625,
      "existing": 7626,
      "Ġciel": 7627,
      "tabs": 7628,
      "}'.": 7629,
      "dele": 7630,
      "asc": 7631,
      "ensure": 7632,
      "ĠMap": 7633,
      "Ġoutfile": 7634,
      "TOP": 7635,
      "Mouse": 7636,
      "fixtures": 7637,
      "yyyy": 7638,
      "Ġpixel": 7639,
      "Ġlisten": 7640,
      ">\"\"\")": 7641,
      "Pickle": 7642,
      "bold": 7643,
      "margin": 7644,
      "incremental": 7645,
      "Ġcandidate": 7646,
      "Ġinformation": 7647,
      "Ġtamanho": 7648,
      "Ġensure": 7649,
      "validator": 7650,
      "currentToken": 7651,
      "Ġvideo": 7652,
      "Ġflask": 7653,
      "ĠOR": 7654,
      "Ġfmt": 7655,
      "trinsi": 7656,
      "peak": 7657,
      "ĠTo": 7658,
      "ventory": 7659,
      "Ġ128": 7660,
      "lm": 7661,
      "thIdx": 7662,
      "Ġmateri": 7663,
      "ĠClass": 7664,
      "MAGE": 7665,
      "ĠPyrexTypes": 7666,
      "Lost": 7667,
      "xab": 7668,
      "xsl": 7669,
      "Ġcast": 7670,
      "ĊĠĠĠĠĠĠĠĠĠĠĠĠĠĠĠĠĠĠĠĠĠĊĠĠĠĠĠĠĠ": 7671,
      "modify": 7672,
      "libvlc": 7673,
      "Coord": 7674,
      "Upload": 7675,
      "Fixed": 7676,
      "klass": 7677,
      "Ġmp": 7678,
      "fft": 7679,
      "mob": 7680,
      "pref": 7681,
      "domains": 7682,
      "WID": 7683,
      "tice": 7684,
      "Ġbrowser": 7685,
      "0001": 7686,
      "shutdown": 7687,
      "locations": 7688,
      "SetValue": 7689,
      "Preproc": 7690,
      "ToolByName": 7691,
      "Fetch": 7692,
      "Te": 7693,
      "fm": 7694,
      "wri": 7695,
      "))))": 7696,
      "quit": 7697,
      "prog": 7698,
      "ĠAUTH": 7699,
      "ĠServer": 7700,
      "racs": 7701,
      "'(\\": 7702,
      "91": 7703,
      "WORK": 7704,
      "jk": 7705,
      "Ġrx": 7706,
      "starttag": 7707,
      "objc": 7708,
      "\">%": 7709,
      "MAIN": 7710,
      "smart": 7711,
      "ĠConfigured": 7712,
      "LANGUAGE": 7713,
      "=('": 7714,
      "ĊĠĠĠĠĠĠĠĠĊ": 7715,
      "Ġ'+": 7716,
      "deferred": 7717,
      "Extractor": 7718,
      "ĠEmail": 7719,
      "usher": 7720,
      "marks": 7721,
      "Events": 7722,
      "PropValue": 7723,
      "Ġident": 7724,
      "spread": 7725,
      "Ġeb": 7726,
      "ĠCity": 7727,
      "ĠgetToolByName": 7728,
      "LAB": 7729,
      "votes": 7730,
      "devices": 7731,
      "Ġlibrary": 7732,
      "ĠMedia": 7733,
      "Pixmap": 7734,
      "jected": 7735,
      "vite": 7736,
      "Ġextr": 7737,
      "Ġ\"\".": 7738,
      "XXXX": 7739,
      "decorator": 7740,
      "projection": 7741,
      "Ġextensions": 7742,
      "Fake": 7743,
      "Ġmut": 7744,
      "zeug": 7745,
      "Stat": 7746,
      "Ġcharacter": 7747,
      "Ġhelpers": 7748,
      "Sink": 7749,
      "clock": 7750,
      "dll": 7751,
      "undefined": 7752,
      "crets": 7753,
      "makedirs": 7754,
      "SCE": 7755,
      "Ġoverride": 7756,
      "presenter": 7757,
      "ĠConfiguredAirbyte": 7758,
      ">\",": 7759,
      "kill": 7760,
      "Ġclick": 7761,
      "objs": 7762,
      "Render": 7763,
      "Ġweakref": 7764,
      "Customer": 7765,
      "dl": 7766,
      "kzeug": 7767,
      "since": 7768,
      "deepcopy": 7769,
      "ĊĊĠĠ": 7770,
      "Ġhook": 7771,
      "\")),": 7772,
      "ĠStep": 7773,
      "rowCount": 7774,
      "ENSE": 7775,
      "DOC": 7776,
      "ĠOSError": 7777,
      "DS": 7778,
      "ahead": 7779,
      "ga": 7780,
      "appro": 7781,
      "Ġwk": 7782,
      "Ġseg": 7783,
      "based": 7784,
      "Ġstates": 7785,
      "Ġrobot": 7786,
      "Ġmodified": 7787,
      "contacts": 7788,
      "Close": 7789,
      "Cer": 7790,
      "plat": 7791,
      "xs": 7792,
      "{\\": 7793,
      "geometry": 7794,
      "Ġcgi": 7795,
      "sil": 7796,
      "igure": 7797,
      "Ġdiv": 7798,
      "TEN": 7799,
      "Ġnums": 7800,
      "Ġcleaned": 7801,
      "rottle": 7802,
      "Ġflush": 7803,
      ":',": 7804,
      "Django": 7805,
      "large": 7806,
      "peated": 7807,
      "Ġdid": 7808,
      "msgs": 7809,
      "execution": 7810,
      "pretty": 7811,
      "ceed": 7812,
      "Ġsyn": 7813,
      "tions": 7814,
      "readI": 7815,
      "neighb": 7816,
      "Stats": 7817,
      "openstack": 7818,
      "Ġnotification": 7819,
      "ĊĊĠĠĠĠĠĠĠĠĠĠĠĠĠĠĠĠĠĠĠĠĠĠĠĠĠĠĠĠĠĠĠĠĠĠĠĠĠĠĠĠĠĠĠĠĠĠĠĠĠĠĠĠĠĠĠĠĠĠĠĠĠĠĠĠĠĠĠ": 7820,
      "ĊĊĠĠĠĠĠĠĠĠĠĠĠĠĠĠĠĠĠĠĠĠĠĠĠĠĠĠĠĠĠĠĠĠĠĠĠĠĠĠĠĠĠĠĠĠĠĠĠĠĠĠĠĠĠĠĠĠĠĠĠĠĠĠĠĠĠĠĠĠĠĠĠ": 7821,
      "BUFFER": 7822,
      "animation": 7823,
      "nickname": 7824,
      "MsgPack": 7825,
      "fficient": 7826,
      "/?": 7827,
      "Public": 7828,
      "arded": 7829,
      "combin": 7830,
      "UTT": 7831,
      "caption": 7832,
      "IGN": 7833,
      "distribution": 7834,
      "\"+": 7835,
      "EF": 7836,
      "Mail": 7837,
      "fb": 7838,
      "rename": 7839,
      "Ġpm": 7840,
      "setCurrent": 7841,
      "spli": 7842,
      "foot": 7843,
      "Ġconnections": 7844,
      "FILES": 7845,
      "PARAM": 7846,
      "tzinfo": 7847,
      "highlight": 7848,
      "mobile": 7849,
      "ied": 7850,
      "tx": 7851,
      "stan": 7852,
      "ables": 7853,
      "Ġtrue": 7854,
      "Ġcluster": 7855,
      "Ġscene": 7856,
      "Ġpackages": 7857,
      "ĠDocument": 7858,
      "flipp": 7859,
      "tcha": 7860,
      "Calc": 7861,
      "maxtag": 7862,
      "Prompt": 7863,
      "([])": 7864,
      "doctype": 7865,
      "(_(": 7866,
      "Ġmaxtag": 7867,
      "Ġmerge": 7868,
      "'d": 7869,
      "have": 7870,
      "xed": 7871,
      "Ġlater": 7872,
      "Ġ\"+": 7873,
      "ula": 7874,
      "Ġwave": 7875,
      "preview": 7876,
      "readlines": 7877,
      "tip": 7878,
      "boost": 7879,
      "Ġprompt": 7880,
      "Ġdatastore": 7881,
      "writeI": 7882,
      "PASS": 7883,
      "stage": 7884,
      "ĠStr": 7885,
      "ipher": 7886,
      "findtext": 7887,
      "TRY": 7888,
      "Ġttl": 7889,
      "miti": 7890,
      "Ġserialize": 7891,
      "__))": 7892,
      "ĠCustom": 7893,
      "appendChild": 7894,
      "filenames": 7895,
      "Copyright": 7896,
      "ILI": 7897,
      "kDNSService": 7898,
      "ancy": 7899,
      "ĠinArray": 7900,
      "Ġdec": 7901,
      "Ġgreen": 7902,
      "Ġorg": 7903,
      "uick": 7904,
      "Less": 7905,
      "placeholder": 7906,
      "paren": 7907,
      ";\",": 7908,
      "]}": 7909,
      "bulk": 7910,
      "slices": 7911,
      "cogn": 7912,
      "spo": 7913,
      "Remote": 7914,
      "ubclass": 7915,
      "ĠĠĠĠĠĠĠĠĠĠĠĠĠĠĠĠĠĠĠĠĠĠĠĠĠĠĠĠĠĠ": 7916,
      "ĠEntry": 7917,
      "stored": 7918,
      "ĠFIELD": 7919,
      "onymous": 7920,
      "Sn": 7921,
      "Ġreturned": 7922,
      "unquote": 7923,
      "motion": 7924,
      "need": 7925,
      "ĠSearch": 7926,
      "ĠExprNodes": 7927,
      "101": 7928,
      "NEL": 7929,
      "tl": 7930,
      "ĊĊĠĠĠĠĠĠĠĠĠĠĠĠĠĠ": 7931,
      "ĠVERSION": 7932,
      "inc": 7933,
      "Ġput": 7934,
      "Ġdelay": 7935,
      "STAMP": 7936,
      "subTest": 7937,
      "Parameters": 7938,
      "ickness": 7939,
      "Ġtasks": 7940,
      "Ġlive": 7941,
      "transition": 7942,
      "Ġlon": 7943,
      "ĠĠĠĠĠĠĠĠĠĠĠĠĠĠĠĠĠĠĠĠĠĠĠĠĠĊĠĠĠĠĠĠĠ": 7944,
      "Ġcodecs": 7945,
      "Ġcert": 7946,
      "Angle": 7947,
      "dh": 7948,
      "Ġclock": 7949,
      "ĠFl": 7950,
      "Ġglob": 7951,
      "Delegate": 7952,
      "ĠProcess": 7953,
      "Ġnullable": 7954,
      "CM": 7955,
      "IST": 7956,
      "cepted": 7957,
      "DESCRIPT": 7958,
      "Ġfieldname": 7959,
      "Dive": 7960,
      "Ġcredentials": 7961,
      "Ġjj": 7962,
      "expiration": 7963,
      "Structure": 7964,
      "cipient": 7965,
      "73": 7966,
      "cas": 7967,
      "mpp": 7968,
      "ands": 7969,
      "ĊĠĠĠĠĠĠĠĠĠĠĠĠĠĠĠĠĠĠĠĠĠĠĠĠĠĠĠĠĠĠĠĠĠĠĠĠĠĠĠĠĠĠĠĠĊĠĠĠ": 7970,
      "THON": 7971,
      "going": 7972,
      "MSG": 7973,
      "ĊĠĊĠĠĠĠĠĠĠĠĠĠĠĠĠĠĠĠĠĠĠĠĠĠĠĠĠĠĠĠĠĠĠĠĠĠĠĠĠĠĠĠĠĠĠĠĠĠĠĠĠĠĠĠĠĠĠĠĠĠĠĠĠĠĠĠĠĠĠĠĠĠĠĠĠĠĠĠĊĠĠĠĠĠĠĠĠĠĠĠĠĠĠĠĠĠĠĠĠĠĠĠĠĠĠĠĠĠĠĠĠĠĠĠĠĠĠĠĠĠĠĠĠĠĠĠĠĠĠĠĠĠĠĠĠĠĠĠĠĠĠĠĠĠĠĠĠĠĠĠĠĠĠĠĠĊĠĠĠĠĠĠĠĠĠĠĠĠĠĠĠĠĠĠĠĠĠĠĠĠĠĠĠĠĠĊĠĊĠĠĠĠĠĠĠĠĠĠĠĠĠĠĠĠĠĠĠĠĠĠĠĠĠĠĠĠĠĠĠĠĠĠĠĠĠĠĠĠĠĠĠĠĠĠĠĠĠĠĠĠĊĠĊĠĠĠĠĠĠĠĠĠĠĠĠĠĠĠĠĠĠĠĠĠĠĠĠĠĠĠĠĠĠĠĠĠĠĠĠĠĠĠĠĠĠĠĠĠĠĠĠĠĠĠĠĠĠĠĠĠĠĠĠĠĠĠĠĠĠĠĠĠĠĠĠĊĠĠĠĠĠĠĠĠĠĠĠĠĠĠĠĠĠĠĠĠĠĠĠĠĠĠĠĠĠĠĠĠĠĠĠĠĠĠĠĠĠĠĠĠĠĠĠĠĠĠĠĠĠĠĠĠĠĠĠĠĠĠĠĠĠĠĠĠĠĠĠĠĠĠĠĠĠĠĊĠĠĠĠĠĠĠĠĠĠĠĠĠĠĠĠĠĠĠĠĠĠĠĠĠĠĠĠĠĠĠĠĠĠĠĠĠĠĠĠĠĠĠĠĠĠĠĠĠĠĠĠĠĠĠĠĠĠĠĠĠĠĠĠĠĠĠĠĠĠĠĠĠĠĠĠĠĊĠĠĠĠĠĠĠĠĠĠĠĠĠĠĠĠĠĠĠĠĠĠĠĠĠĠĠĠĠĠĠĠĠĠĠĠĠĠĠĠĠĠĠĠĠĠĠĠĠĠĠĠĠĠĠĠĠĠĠĠĠĠĠĠĠĠĠĠĠĠĠĠĠĠĠĠ": 7974,
      "XY": 7975,
      "Ġrecent": 7976,
      "Ġ''),": 7977,
      "getcwd": 7978,
      "may": 7979,
      "Short": 7980,
      "Ġconsole": 7981,
      "Ġflowgram": 7982,
      "mg": 7983,
      "ence": 7984,
      "Ġsa": 7985,
      "Ġchain": 7986,
      "libs": 7987,
      "ĊĊĠĠĠĠĠĠĠĠĠĠĠĠĠĠĠĠĠĠĠĠĠĠĠĠĠĠĠĠĠĠĠĠĠĠĠĠĠĠĠĠĠĠĠĠĠĠĠĠĠĠĠĠĠĠĠĠĠĠĠĠĠĠĠĠĠĠ": 7988,
      "GetPort": 7989,
      "Trace": 7990,
      "ĠDefault": 7991,
      "ĊĠĠĠĠĠĠĠĠĠĠĠĠĠĠĠĠĠĠĠĠĠĠĠĠĠĠĠĠĠĠĠĠĠĠĠĠĠĠĠĠĠĠĠĠĠĠĠĠĠĠĠĊĠĠĠ": 7992,
      "[]\")": 7993,
      "MLE": 7994,
      "rst": 7995,
      "lision": 7996,
      "verti": 7997,
      "Ġstmt": 7998,
      "ĠCode": 7999,
      "movie": 8000,
      "Ġ31": 8001,
      "Ġcookies": 8002,
      "Ġsublime": 8003,
      "caller": 8004,
      "fetchall": 8005,
      "Ġavail": 8006,
      "Ġcomplete": 8007,
      "ParameterValue": 8008,
      "Zone": 8009,
      "Ġreview": 8010,
      "(\"_": 8011,
      "ĊĠĠĠĠĠĠĠĠĠĠĠĠĠĠĠĠĠĠĠĠĠĠĠĠĠĠĠĠĠĠĠĠĠĠĠĠĠĠĠĠĠĠĠĠĠĠĠĠĠĠĠĠĠĠĠĠĠĠĠĠĠĠĠĠĠĠĠĠĠĠĠĠĠĠĠĠĠĠĠĊĠĠĠĠĠĠĠ": 8012,
      "orders": 8013,
      "cluded": 8014,
      "dispose": 8015,
      "while": 8016,
      "OLS": 8017,
      "PAY": 8018,
      "8859": 8019,
      "INITIAL": 8020,
      "CLI": 8021,
      "It": 8022,
      "Sw": 8023,
      "fun": 8024,
      "indices": 8025,
      "))]": 8026,
      "Ġencoder": 8027,
      "Ġ404": 8028,
      "forum": 8029,
      "svg": 8030,
      "Ġreduce": 8031,
      "\\\"": 8032,
      "basis": 8033,
      "tre": 8034,
      "Ġgs": 8035,
      "ĠValidation": 8036,
      "ĠcStringIO": 8037,
      "fileno": 8038,
      "Ġshipping": 8039,
      "serialized": 8040,
      "Ġperm": 8041,
      "authorize": 8042,
      "TICAL": 8043,
      "DESCRIPTOR": 8044,
      "'',": 8045,
      "vsa": 8046,
      "ĊĠĠĠĠĠĠĠĠĠĠĠĠĠĠĠĠĊĠĠĠ": 8047,
      "apphosting": 8048,
      "\")]": 8049,
      "Errors": 8050,
      "urllib": 8051,
      "Ġproj": 8052,
      "connectors": 8053,
      "Ġanchor": 8054,
      "MessagePack": 8055,
      "relation": 8056,
      "Ġhandlers": 8057,
      "Ġinputs": 8058,
      "Ġenvironment": 8059,
      "Geom": 8060,
      "MessagePackObject": 8061,
      "Mask": 8062,
      "TLE": 8063,
      "ĊĊĊĠĠĠĠĠ": 8064,
      "calendar": 8065,
      "Ġunpack": 8066,
      "ĠWeb": 8067,
      "Ġlike": 8068,
      "delivery": 8069,
      "spectrum": 8070,
      "urchase": 8071,
      "MID": 8072,
      "Ġgeneric": 8073,
      "orical": 8074,
      "ĠSolution": 8075,
      "Expected": 8076,
      "ĊĊĠĠĠĠĠĠĠĠĠĠĠĊĊĠĠĠ": 8077,
      "Ġhere": 8078,
      "Ġclassmethod": 8079,
      "disco": 8080,
      "fetchone": 8081,
      "NUMBER": 8082,
      "Ġoperation": 8083,
      "Ġ%%": 8084,
      "---": 8085,
      "contenttypes": 8086,
      "Ġconfiguration": 8087,
      "Ġrunner": 8088,
      "Ġmovie": 8089,
      "organization": 8090,
      "Ġpygments": 8091,
      "NORMAL": 8092,
      ".\"))": 8093,
      "Later": 8094,
      "Ori": 8095,
      "nav": 8096,
      "(\"&": 8097,
      "Ġexpression": 8098,
      "cruise": 8099,
      "Anim": 8100,
      "versal": 8101,
      "FLA": 8102,
      "nPE": 8103,
      "ceil": 8104,
      "literal": 8105,
      "Ġslot": 8106,
      "lause": 8107,
      "ĠCS": 8108,
      "Ġ('/": 8109,
      "Ġdistutils": 8110,
      "();\\": 8111,
      "Geo": 8112,
      "Ġsoup": 8113,
      "AUTHORI": 8114,
      "ĠCallable": 8115,
      "EQUAL": 8116,
      "_'": 8117,
      "echo": 8118,
      "pin": 8119,
      "aniti": 8120,
      "ĠPlease": 8121,
      "Connector": 8122,
      "Visit": 8123,
      "Ġboundary": 8124,
      ".)": 8125,
      "DLE": 8126,
      "RX": 8127,
      "Wait": 8128,
      "ĠON": 8129,
      "('</": 8130,
      "collect": 8131,
      "pyobject": 8132,
      "pagename": 8133,
      "STRUCT": 8134,
      "dialect": 8135,
      "509": 8136,
      "UTTON": 8137,
      "za": 8138,
      "Ġinternal": 8139,
      "exposed": 8140,
      "userid": 8141,
      "ĠET": 8142,
      "ĊĠĠĠĠĠĠĠĠĠĠĠĠĠĠĠĠĠĠĠĠĠĠĠĠĠĠĠĠĠĠĠĠĠĠĠĠĠĠĠĠĠĠĠĠĠĠĠĠĠĠĠĠĠĠĠĠĠĠĠĠĠĠĠĠĠĠĠĠĠĠĠĠĠĠĠĠĠĠĠĠĠĠĠĠĠĠ": 8143,
      "ĠConst": 8144,
      "radio": 8145,
      "Ring": 8146,
      "]/": 8147,
      "bidden": 8148,
      "wave": 8149,
      "Ġfragment": 8150,
      "tax": 8151,
      "Ġdataset": 8152,
      "updates": 8153,
      "LOAT": 8154,
      "tics": 8155,
      "ĊĠĠĠĠĠĠĠĠĠĠĠĠĠĠĠĠĠĠĠĠĠĠĠĠĠĠĠĠĊĠĠĠĠĠĠĠĠĠĠĠ": 8156,
      "avig": 8157,
      "ĠGEOS": 8158,
      "DAT": 8159,
      "Quick": 8160,
      "but": 8161,
      "nr": 8162,
      "ĊĠĠĠĠĠĠĠĠĠĠĠĠĠĠĠĠĠĠĠĠĠĠĠĠĠĠĠĠĠĠĠĠĠĠĠĠĠĠĠĠĠĠĠĠĠĠĠĠĠĠĠĠĠĠĠĠĠĠĠĠĠĠĠĠĊĠĠĠĠĠĠĠĠĠĠĠĠĠĠĠĠĠĠĠĠĠĠĠĠĠĠĠĠĠĠĠĠĠĠĠĠĠĠĠĠĠĠĠĠĠĠĠĠĠĠĠĠĠĠĠĠĠĠĠĠĠĠĠ": 8163,
      "visi": 8164,
      "ĠDis": 8165,
      "ĠEV": 8166,
      "Texture": 8167,
      "168": 8168,
      "ĊĊĠĠĠĠĠĠĠĠĠĠĠĠĠĠĠĠĠĠĠĠĠĠĠĠĠĠĠĠĠĠĠĠĊĠĠĠĠĠĠĠ": 8169,
      "numbers": 8170,
      "Spin": 8171,
      "birthday": 8172,
      "havior": 8173,
      "lnet": 8174,
      "sf": 8175,
      "ĠEND": 8176,
      "atural": 8177,
      "Ġclip": 8178,
      "contain": 8179,
      "tended": 8180,
      "ARCH": 8181,
      "ACT": 8182,
      "ĠStatus": 8183,
      "2023": 8184,
      "Checker": 8185,
      "Ġrealm": 8186,
      "HEADER": 8187,
      "<!": 8188,
      "Ġselection": 8189,
      "Ġfla": 8190,
      "Ġpush": 8191,
      "chdir": 8192,
      "about": 8193,
      "endor": 8194,
      "Ġpartial": 8195,
      "ENTER": 8196,
      "Ġoptional": 8197,
      "ĊĠĠĠĠĠĠĠĠĠĠĠĠĠĠĠĠĠĠĠĠĠĠĠĠĠĠĠĠĠĠĠĠĠĠĠĠĠĠĠĠĠĠĊĠĠĠ": 8198,
      "Ġavg": 8199,
      "ĠLogger": 8200,
      "jinja": 8201,
      "ocial": 8202,
      "undai": 8203,
      "Ġ49": 8204,
      "letter": 8205,
      "Ġtranslation": 8206,
      "ĠCreate": 8207,
      "PositiveIntegerField": 8208,
      "bridge": 8209,
      "WM": 8210,
      "receiver": 8211,
      "Ġtp": 8212,
      "Ġresolve": 8213,
      "scaleFactor": 8214,
      "legal": 8215,
      "110": 8216,
      "Rule": 8217,
      "WER": 8218,
      "pal": 8219,
      "ster": 8220,
      "sink": 8221,
      "wall": 8222,
      "abber": 8223,
      "metaclass": 8224,
      "Ġspecify": 8225,
      "dicator": 8226,
      "71": 8227,
      "Alert": 8228,
      "pan": 8229,
      "erce": 8230,
      "testing": 8231,
      "ĊĠĠĠĠĠĠĠĠĠĠĠĠĠĠĠĠĠĠĠĠĠĠĠĠĠĠĠĠĠĠĠĠĠĠĠĠĠĠĠĠĠĠĠĠĠĠĠĠĠĠĠĠĠĠĠĠĠĠĠĠĠĠĠĠĠĠĠĠĠĠĠĠĠĠĠĠĠĠĊĠĠĠĠĠĠĠ": 8232,
      "SITE": 8233,
      "Ġportal": 8234,
      "issue": 8235,
      "membership": 8236,
      "sensitive": 8237,
      "PAGE": 8238,
      "OBJECT": 8239,
      "Repository": 8240,
      "migrate": 8241,
      "Ġcapi": 8242,
      "idle": 8243,
      "producer": 8244,
      "ARK": 8245,
      "Selected": 8246,
      "ĊĠĠĠĠĠĠĠĠĠĠĠĠĠĠĠĠĠĠĠĠĠĠĠĠĠĠĠĠĠĠĠĊĠĠĠĠĠĠĠĠĠĠĠ": 8247,
      "collections": 8248,
      "SIGN": 8249,
      "mediate": 8250,
      "Folder": 8251,
      "IA": 8252,
      "SUP": 8253,
      "]]:": 8254,
      "uate": 8255,
      "ĊĊĠĠĠĠĠĠĠĠĠĠĠĠĠ": 8256,
      "Ġassoci": 8257,
      "attack": 8258,
      "Ġ'>": 8259,
      "enario": 8260,
      "ĠFound": 8261,
      "Ġ302": 8262,
      "validators": 8263,
      "Ġaxes": 8264,
      "ĠGeo": 8265,
      ":]:": 8266,
      "Ca": 8267,
      "measure": 8268,
      "colour": 8269,
      "assertBody": 8270,
      "Reply": 8271,
      "icms": 8272,
      "Stub": 8273,
      "Movie": 8274,
      "ĊĠĠĠĠĠĠĠĠĠĠĠĠĠĠĠĠĠĠĠĠĠĠĠĠĠĠĠĠĠĠĠĠĠĠĠĠĠĠĠĠĠĠĠĠĠĠĠĠĠĠĊĠĠĠ": 8275,
      "Ġinstalled": 8276,
      "LDAP": 8277,
      "\"')": 8278,
      "Press": 8279,
      "Your": 8280,
      "enc": 8281,
      "collector": 8282,
      "Ġtrig": 8283,
      "Ġresources": 8284,
      "authenticate": 8285,
      "Pixel": 8286,
      "ASCII": 8287,
      "Ġcred": 8288,
      "loss": 8289,
      "lict": 8290,
      "ĊĠĠĠĠĠĠĠĠĠĠĠĠĠĠĠĠĠĠĠĊĠĠĠĠĠĠĠĠĊĠĠĠĠĠĠĠ": 8291,
      "ĠOP": 8292,
      "ĠWS": 8293,
      "tific": 8294,
      "Ġnetloc": 8295,
      "ridge": 8296,
      "Ġadap": 8297,
      "calculate": 8298,
      "FC": 8299,
      "Gen": 8300,
      "qname": 8301,
      "look": 8302,
      "Ġdns": 8303,
      "quota": 8304,
      "ĠFree": 8305,
      "partial": 8306,
      "Ġgobject": 8307,
      "Connect": 8308,
      "maps": 8309,
      "generated": 8310,
      "LIMIT": 8311,
      "soup": 8312,
      "operation": 8313,
      "Ġissue": 8314,
      "setCurrentIndex": 8315,
      "!=": 8316,
      "AST": 8317,
      "bid": 8318,
      "gues": 8319,
      "ious": 8320,
      "xFF": 8321,
      "ĠTe": 8322,
      "pow": 8323,
      "Standard": 8324,
      "currentIndex": 8325,
      "ICMS": 8326,
      "Endpoint": 8327,
      "Pyx": 8328,
      "Editor": 8329,
      "sertions": 8330,
      "RUN": 8331,
      "`,": 8332,
      "pf": 8333,
      "ðŁ": 8334,
      "separator": 8335,
      "chr": 8336,
      "Ġmk": 8337,
      "persis": 8338,
      "precision": 8339,
      "INGS": 8340,
      "callbacks": 8341,
      "Ġmocker": 8342,
      "Ġpublish": 8343,
      "WARNING": 8344,
      "cycles": 8345,
      "Scheduler": 8346,
      "WW": 8347,
      "ptime": 8348,
      "zed": 8349,
      "learning": 8350,
      "codec": 8351,
      "urly": 8352,
      "runtime": 8353,
      "Ġlinks": 8354,
      "Ġcorrect": 8355,
      "pressions": 8356,
      "beta": 8357,
      "}))": 8358,
      "unce": 8359,
      "quot": 8360,
      "ĠPh": 8361,
      "locked": 8362,
      "ghts": 8363,
      "GetValue": 8364,
      "Ġroles": 8365,
      "tm": 8366,
      "continue": 8367,
      "Ġxy": 8368,
      "Ġxlib": 8369,
      "ĊĠĠĠĠĠĠĠĠĠĠĠĠĠĠĠĠĠĠĠĠĠĠĠĠĠĠĠĠĠĠĠĠĠĠĠĠĠĠĠĠĠĊĠĠĠ": 8370,
      "ĠMark": 8371,
      "TestSuite": 8372,
      "ILD": 8373,
      "2010": 8374,
      "Ġsupports": 8375,
      "Canvas": 8376,
      "ĠAssertionError": 8377,
      "allel": 8378,
      "WIDTH": 8379,
      "Lines": 8380,
      "]=": 8381,
      "ansition": 8382,
      "ople": 8383,
      "buted": 8384,
      "Ġdictionary": 8385,
      "ENDI": 8386,
      "ĊĊĠĠĠĠĠĠĠĠĠĠĠĠĠĠĠĠĠĠĠĠĠĠĠĠĠĠĠĠĠĠĠĠĠĠĠĠĠĠĠĠĠĠĠĠĠĠĠĠĠĠĠĠĠĠĠĠĠĠĠĠĠĠĠ": 8387,
      "Ġiterable": 8388,
      "$'": 8389,
      ".\"),": 8390,
      "Dest": 8391,
      "bine": 8392,
      "balance": 8393,
      "numeric": 8394,
      "Ġfriend": 8395,
      "verifier": 8396,
      "park": 8397,
      "utility": 8398,
      "ĊĠĠĠĠĠĠĠĠĠĠĠĠĠĠĠĠĠĠĠĠĠĠĠĠĠĠĠĠĠĠĠĠĠĠĠĠĠĠĠĠĠĠĠĠĠĠĠĠĠĠĠĠĠĠĠĠĠĠĠĠĠĠĠĠĠĠĠĠĠĠĠĠĠĠĠĠĠĠĠĠĠĠĠĠĠ": 8399,
      "rollback": 8400,
      "DAY": 8401,
      "irtual": 8402,
      "Batch": 8403,
      "Go": 8404,
      "fa": 8405,
      "Ġpand": 8406,
      "Ġsip": 8407,
      "INDE": 8408,
      "ĠNO": 8409,
      "news": 8410,
      "parseString": 8411,
      "windows": 8412,
      "what": 8413,
      "ĠVector": 8414,
      "ĠCharField": 8415,
      "TAL": 8416,
      "YY": 8417,
      "dap": 8418,
      "Ġ\"{": 8419,
      "Inte": 8420,
      "Ġthrift": 8421,
      "weets": 8422,
      "php": 8423,
      "Ġrope": 8424,
      "SPON": 8425,
      "waiting": 8426,
      "initialize": 8427,
      "ĠUpdate": 8428,
      "periment": 8429,
      "Ne": 8430,
      "Tags": 8431,
      "egg": 8432,
      "snowflake": 8433,
      "lify": 8434,
      "(\"#": 8435,
      "lave": 8436,
      "Ġsegments": 8437,
      "Ġdimen": 8438,
      "Ġsubscription": 8439,
      "umper": 8440,
      "integration": 8441,
      "flippulselength": 8442,
      "BLOCK": 8443,
      "ape": 8444,
      "hr": 8445,
      "Ġterms": 8446,
      "increment": 8447,
      "celery": 8448,
      "without": 8449,
      "ĊĠĠĠĠĠĠĠĠĠĠĠĠĠĠĠĠĠĠĠĠĠĠĠĠĠĠĠĠĠĠĠĠĠĠĠĠĠĠĠĊĠĠĠ": 8450,
      "Move": 8451,
      "Ġchunks": 8452,
      "UBLIC": 8453,
      "utcnow": 8454,
      "NULL": 8455,
      "gz": 8456,
      "who": 8457,
      "zilla": 8458,
      "repeat": 8459,
      "Ġ\".\"": 8460,
      "ĠInput": 8461,
      "ĠBoolean": 8462,
      "Ġstored": 8463,
      "Ġlexer": 8464,
      "CAN": 8465,
      "eof": 8466,
      "Ġrevision": 8467,
      "lier": 8468,
      "tok": 8469,
      "ĠBlock": 8470,
      "Ġkernel": 8471,
      "Ġpointer": 8472,
      "diffs": 8473,
      "datap": 8474,
      "Free": 8475,
      "]')": 8476,
      "enses": 8477,
      "Ġnb": 8478,
      "amma": 8479,
      "processes": 8480,
      "addAction": 8481,
      "ints": 8482,
      "submission": 8483,
      "baseclasses": 8484,
      "LOAD": 8485,
      "failIf": 8486,
      "Ġvertex": 8487,
      "Ġmanage": 8488,
      "memcache": 8489,
      "2011": 8490,
      "paginator": 8491,
      "432": 8492,
      ";\")": 8493,
      "DC": 8494,
      "Red": 8495,
      "nested": 8496,
      "uit": 8497,
      "Ġii": 8498,
      "___": 8499,
      "('\\\\": 8500,
      "exe": 8501,
      "omial": 8502,
      "currences": 8503,
      "ĠBlog": 8504,
      "iness": 8505,
      "attname": 8506,
      "Ċĉĉ": 8507,
      "cedure": 8508,
      "cidr": 8509,
      "ENDIAN": 8510,
      ")\"),": 8511,
      "ITH": 8512,
      "candidate": 8513,
      "rfc": 8514,
      "tcp": 8515,
      "vation": 8516,
      "Ġlin": 8517,
      "represent": 8518,
      "Ġredis": 8519,
      "Ġ'').": 8520,
      "Ġ[{'": 8521,
      "uman": 8522,
      "ĊĠĠĠĠĠĠĠĠĠĠĠĠĠĠĠĠĠĠĠĠĠĠĠĠĠĠĠĠĠĠĠĠĠĠĠĠĠĠĠĠĊĠĠĠ": 8523,
      "translations": 8524,
      "SECRE": 8525,
      "QUERY": 8526,
      "IGNO": 8527,
      "UBLE": 8528,
      "Delta": 8529,
      "Has": 8530,
      "Used": 8531,
      "paste": 8532,
      "requires": 8533,
      "eros": 8534,
      "usted": 8535,
      "Ġ202": 8536,
      "premium": 8537,
      "Ġmaxlength": 8538,
      "clusion": 8539,
      "Ġvalidation": 8540,
      "ĠNameError": 8541,
      "ĠĠĠĠĠĠĠĠĠĠĠĠĠĠĠĠĠĠĠĠĠĊ": 8542,
      "ĠFeast": 8543,
      "servation": 8544,
      "Ġpatterns": 8545,
      ",\\": 8546,
      "Polygon": 8547,
      "}')": 8548,
      "Ġtermin": 8549,
      "Ġpr": 8550,
      "peek": 8551,
      "Ġspeed": 8552,
      "Ġsalt": 8553,
      "minimum": 8554,
      "ĠOF": 8555,
      "Ġbecause": 8556,
      "\\\\\\": 8557,
      "Package": 8558,
      ":`~": 8559,
      "ĠPOINTER": 8560,
      "Ġits": 8561,
      "Ġ'[": 8562,
      "ench": 8563,
      "\"]),": 8564,
      "TITY": 8565,
      "Setting": 8566,
      "manent": 8567,
      "Series": 8568,
      "(\",": 8569,
      "CG": 8570,
      "GIN": 8571,
      "Imp": 8572,
      "zb": 8573,
      "arison": 8574,
      "Ġcat": 8575,
      "quantity": 8576,
      "lerance": 8577,
      "ĠDummy": 8578,
      "ĠUUID": 8579,
      "Ġpyffi": 8580,
      "Ġbuiltin": 8581,
      "DateField": 8582,
      "Ġmacro": 8583,
      "IR": 8584,
      "OIN": 8585,
      "symbols": 8586,
      "ini": 8587,
      "quantum": 8588,
      "isode": 8589,
      "(((": 8590,
      "Subscription": 8591,
      "ĊĠĠĠĠĠĠĠĠĠĠĠĠĠĠĠĠĠĠĠĠĠĠĠĠĠĠĠĠĠĠĠĠĠĠĠĠĠĠĠĠĠĠĠĠĠĠĠĠĠĠĠĠĠĠĠĊĠĠĠ": 8592,
      "ĠResource": 8593,
      ")|": 8594,
      "DP": 8595,
      "gcs": 8596,
      "iq": 8597,
      "ython": 8598,
      "dead": 8599,
      "sip": 8600,
      "Ġforum": 8601,
      "Ġrgb": 8602,
      "ĠRegex": 8603,
      "ATIVE": 8604,
      "COMMENT": 8605,
      "discard": 8606,
      "Focus": 8607,
      "milliseconds": 8608,
      "sound": 8609,
      "scores": 8610,
      "Ġpref": 8611,
      "ĊĠĠĠĠĠĠĠĠĠĠĠĠĠĠĠĠĠĠĠĠĠĠĠĠĠĠĠĠĠĠĠĠĠĠĠĠĠĠĠĠĊĠĠĠĠĠĠĠĠĠĠĠ": 8612,
      "shake": 8613,
      "comma": 8614,
      "Ġsepar": 8615,
      "Std": 8616,
      "Ġdigest": 8617,
      "Ġtimezone": 8618,
      "postgres": 8619,
      "misc": 8620,
      "TOTAL": 8621,
      "rotation": 8622,
      "polygon": 8623,
      "Small": 8624,
      "Slider": 8625,
      "Ġretval": 8626,
      "Ġcompiler": 8627,
      "Running": 8628,
      "rmtree": 8629,
      "Pad": 8630,
      "Ġ''))": 8631,
      "ulator": 8632,
      "ĠfileName": 8633,
      "ĠProfile": 8634,
      "ADMIN": 8635,
      "CONT": 8636,
      "Transfer": 8637,
      "Ġexpand": 8638,
      "56789": 8639,
      "ĠRawBytes": 8640,
      "ĠANY": 8641,
      "tv": 8642,
      "Ġtoday": 8643,
      "Ġversions": 8644,
      "Ġvisi": 8645,
      "Ġcharacters": 8646,
      "utableMapping": 8647,
      "3615": 8648,
      "Ġpipe": 8649,
      "BL": 8650,
      "MY": 8651,
      "Play": 8652,
      "hdr": 8653,
      "Ġ(),": 8654,
      "Ġrec": 8655,
      "defer": 8656,
      "Ġhow": 8657,
      "isten": 8658,
      "logical": 8659,
      "Distance": 8660,
      "ĠEOF": 8661,
      "UNI": 8662,
      "ĊĠĠĠĠĠĠĠĠĠĠĠĠĠĠĠĠĠĠĠĠĠĠĠĠĠĠĠĠĠĠĠĠĠĠĠĊĠĠĠĠĠĠĠĠĠĠĠ": 8663,
      "Ġinitialize": 8664,
      "volumes": 8665,
      "macro": 8666,
      "analyse": 8667,
      "gether": 8668,
      "lities": 8669,
      "atist": 8670,
      "Release": 8671,
      "STER": 8672,
      "stylesheet": 8673,
      "Ġnetworks": 8674,
      "Allow": 8675,
      "FRAME": 8676,
      "Pen": 8677,
      "RST": 8678,
      "hot": 8679,
      "anonymous": 8680,
      "velope": 8681,
      "Security": 8682,
      "openElements": 8683,
      "MPv": 8684,
      "cipe": 8685,
      "flowgram": 8686,
      "Ġwebapp": 8687,
      "Available": 8688,
      "ipelines": 8689,
      "ManyToManyField": 8690,
      "MIDDLE": 8691,
      "MON": 8692,
      "Safe": 8693,
      "rss": 8694,
      "ĊĠĠĠĠĠĠĠĠĠĠĠĠĠĠĠĠĠĠĠĠĠĠĠĠĠĠĠĠĠĠĠĠĊĠĠĠĠĠĠĠĠĠĠĠ": 8695,
      "setValue": 8696,
      "olding": 8697,
      "ĊĠĠĠĠĠĠĠĠĠĠĠĠĠĠĠĠĠĠĠĠĠĠĠĠĠĠĠĠĠĠĠĠĠĠĠĠĠĠĠĠĠĠĠĠĠĠĠĠĊĠĠĠ": 8698,
      "tester": 8699,
      "00000": 8700,
      "finder": 8701,
      "Ġnormal": 8702,
      "Total": 8703,
      ")})": 8704,
      ",**": 8705,
      "FLOAT": 8706,
      "Pub": 8707,
      "Win": 8708,
      "native": 8709,
      "rou": 8710,
      "Ġhmac": 8711,
      "Ġaws": 8712,
      "Ġagain": 8713,
      "estim": 8714,
      "Ġ[]),": 8715,
      "ĠĠĠĠĠĠĠĠĠĠĠĠĠĠĠĠĠĠĠĠĠĊĠ": 8716,
      "ĠPermission": 8717,
      "atory": 8718,
      "Ġix": 8719,
      "Ġrepresent": 8720,
      "Ġ\"*": 8721,
      "cherrypy": 8722,
      "ĠTEST": 8723,
      "Ġgd": 8724,
      "ĠAuto": 8725,
      "minutes": 8726,
      "ĠDO": 8727,
      "ĊĠĠĠĠĠĠĠĠĠĠĠĠĠĠĠĠĠĠĠĠĠĠĠĠĠĠĠĠĠĠĠĠĠĠĠĠĠĠĊĠĠĠĠĠĠĠĠĠĠĠ": 8728,
      "Ġsmtp": 8729,
      "pendency": 8730,
      "MIME": 8731,
      "]|": 8732,
      "uer": 8733,
      "Ġimplemented": 8734,
      "Ġmutable": 8735,
      "atible": 8736,
      "Ġcost": 8737,
      "Filename": 8738,
      "Ġargv": 8739,
      "ĊĠĠĠĠĠĠĠĠĠĠĠĠĠĠĠĠĠĠĠĠĠĠĠĠĠĠĠĠĠĠĠĠĠĠĠĠĠĠĠĠĠĠĠĠĠĠĠĠĠĠĠĠĠĠĠĠĠĠĠĠĠĠĠĠĠĠĊĠĠĠ": 8740,
      "Created": 8741,
      "Ġflash": 8742,
      "RAY": 8743,
      "Ġpairs": 8744,
      "Edge": 8745,
      "FL": 8746,
      "RR": 8747,
      "Sql": 8748,
      "Some": 8749,
      "TAB": 8750,
      "glet": 8751,
      "}},": 8752,
      "Ġcir": 8753,
      "Ġexport": 8754,
      "Ġtx": 8755,
      "poch": 8756,
      "pread": 8757,
      "ĠMenu": 8758,
      "notification": 8759,
      "newline": 8760,
      "Ġbuilder": 8761,
      "UNIT": 8762,
      "TRAN": 8763,
      "Permission": 8764,
      "Ġabstract": 8765,
      "ĠBytes": 8766,
      "splitext": 8767,
      "Diff": 8768,
      "GO": 8769,
      "Mar": 8770,
      "\\/": 8771,
      "_('": 8772,
      "edi": 8773,
      "ĊĊĠĠĠĠĠĠĠĠĠĠĠĠĠĠĠĠĠĠĠĠĠĠĠĠĠĠĠĊĠĠĠĠĠĠĠ": 8774,
      "Ġter": 8775,
      "shuffle": 8776,
      "Ġdive": 8777,
      "Username": 8778,
      "ĊĠĠĠĠĠĠĠĠĠĠĠĠĠĠĠĠĠĠĠĠĠĠĠĠĠĠĠĠĠĠĠĠĠĠĠĠĠĊĠĠĠ": 8779,
      "ĊĠĠĠĠĠĠĠĠĠĠĠĠĠĠĠĠĠĠĠĠĠĠĠĠĠĠĠĠĠĠĠĠĠĠĠĠĠĠĠĠĠĠĠĠĠĠĊĠĠĠĠĠĠĠĠĠĠĠ": 8780,
      "Slice": 8781,
      "lose": 8782,
      "ĠLe": 8783,
      "ĠIt": 8784,
      "120": 8785,
      "Ġjinja": 8786,
[...]
